/**
  ******************************************************************************
  * @file    network_data_params.c
  * @author  AST Embedded Analytics Research Platform
  * @date    2025-06-10T18:41:13+0800
  * @brief   AI Tool Automatic Code Generator for Embedded NN computing
  ******************************************************************************
  * Copyright (c) 2025 STMicroelectronics.
  * All rights reserved.
  *
  * This software is licensed under terms that can be found in the LICENSE file
  * in the root directory of this software component.
  * If no LICENSE file comes with this software, it is provided AS-IS.
  ******************************************************************************
  */

#include "network_data_params.h"


/**  Activations Section  ****************************************************/
ai_handle g_network_activations_table[1 + 2] = {
  AI_HANDLE_PTR(AI_MAGIC_MARKER),
  AI_HANDLE_PTR(NULL),
  AI_HANDLE_PTR(AI_MAGIC_MARKER),
};




/**  Weights Section  ********************************************************/
AI_ALIGNED(32)
const ai_u64 s_network_weights_array_u64[45338] = {
  0x818181818181818aU, 0x8184818181818181U, 0x817f688c81848581U, 0x8181918181818182U,
  0x6007fed511e24e7fU, 0x4a43fc4f0a0726e7U, 0xe85f5976f751630dU, 0xcb1772800a5c0707U,
  0xb6b6efefa910b4ecU, 0xcc08aaf6b5fbbfbeU, 0xc4f213da0fccdfebU, 0xc6d2f6d67fd7acf4U,
  0xe1c2bc95eceddcefU, 0x4f8e2db14dd003bU, 0xcbdec4cdc5b3e3d7U, 0xc0b9f1c2fac2dfd9U,
  0xccf70af70dc118e2U, 0x2abb26f81ab7d0eeU, 0xf0d70b18eee9b719U, 0xc7e1903ae7dc86aeU,
  0xb6c704c40552cbe6U, 0xcfcbf4b03c49e7d9U, 0xf80ee4341ae4e000U, 0x45dd081ce080513eU,
  0xb2a5bcb7bcd48cc9U, 0xbff9a0c5bce5de8cU, 0xc6b68fc4ae93a2deU, 0xb0a4f5c190c3bca9U,
  0x98a894cdb7d4b2d0U, 0xaebde79990c60cd7U, 0xa2cfc9dca3c9b5a5U, 0x7fe299abb8d1d1cdU,
  0xe58fa6c6adb9b8c4U, 0x15c5f5d7e199aabcU, 0xc9cab99ab9cbf6a1U, 0xa690c0a6abdc9daaU,
  0xaac2a4c09fd0b6a4U, 0xc3b3aaadd7b7afcaU, 0xb4c9a2ca94dec28cU, 0xf5dd04acccb09dc9U,
  0x1cf016f82bfabe3dU, 0x336228173c0f3380U, 0x2c130e18e205b032U, 0x23f73c20ab0f5210U,
  0x900ae71341543b47U, 0x3a2e20e7f93f5b3fU, 0xfe282c50ef5e1630U, 0x7443cde826442815U,
  0x2aa72e4f354f1c2cU, 0xff194f2b5cf8feffU, 0x1d3d50160909402dU, 0xe0c132262c37e818U,
  0xf304d15b04523ee3U, 0xd06461b552d212aU, 0xe42cf719ee3526cfU, 0x244e51242d20e83bU,
  0x41029d0e8b1eb4dfU, 0x5ee72ae66ed56a81U, 0x91b51b56c3e5d550U, 0x56da7f7e77b6d7c5U,
  0xe43ce35b7d325f2U, 0x6ba9d5d635ecb13dU, 0xbe89fb9b91baf2baU, 0x9244077fd107e0eeU,
  0x784e22dc19e4390bU, 0xfb3ecdc50a17c4e8U, 0x81ebf303d6002120U, 0xc1d1218eafcd29bU,
  0x59110f12cae933eaU, 0x32d3c01eed454c42U, 0xed812a333af6c5a9U, 0x27033ad6350d821cU,
  0x2210073c21c55b2bU, 0x7f3efb03f43007e3U, 0xcb3ab608ebc7de0cU, 0xd7e2d9f4fccf3ce7U,
  0x3aa86c203c691a26U, 0xcc431cc8e8f819f2U, 0x2257e50f0fa535b1U, 0x1c554683810d10e7U,
  0x3bdadcecc2f4fe06U, 0xebe050bcf03dba1cU, 0x81c3240123f0d824U, 0xe981f0ffd5f4d9b2U,
  0xb241fdd20d4bf014U, 0xfd4d461a3157d11bU, 0xb4d1f5e6162cffffU, 0xe1352a56b3024e85U,
  0x7f60ccedd7fdebf3U, 0x10e5b8dd0f3ef54aU, 0x1de9bfbbddcdeb67U, 0xabb930c895eaaf1eU,
  0x60671b40442118caU, 0x81fd12f73bcb857fU, 0x3863e000f8c31696U, 0x4b1471e4f046e831U,
  0x3a2168169c68f34U, 0xe2dbb5a92bf1d127U, 0xa78aed3c340c1840U, 0xfbe21f183c063cf2U,
  0x7248f27c461ae853U, 0xdfb53bf11d9eaaaU, 0x3881a3bdd3b12627U, 0x11c8eccff9f4b70aU,
  0xa2746d8d91082b6U, 0x29f928e1daece231U, 0x2516a703cb8127e7U, 0xdbdedb775db37f04U,
  0xcd3ebfe33094430U, 0xa128e2ae23a0bcbbU, 0x158109edfa35360aU, 0x94d23bf8e82b2901U,
  0x16fa09213ec32916U, 0x9b0c13dd29141d90U, 0x13e6962887991615U, 0x312d139c8114a2c3U,
  0xaba5361ddfe3b518U, 0x449116a981e8a213U, 0xea1fe73cf2ffad5cU, 0x1dfadbe7329afa57U,
  0xd42696db81c3c8dcU, 0x3ae359d81acb1c18U, 0x5d18110bf80c2325U, 0x4db696fb4025ca24U,
  0x18d481ccba123734U, 0x602ab09d53adc2dU, 0xcc2e16cc18e4c2a3U, 0xea93ad930f81f592U,
  0x1a04dcfb9d009a01U, 0x91f8fbfaa7c5f90cU, 0xbe0516b281f29511U, 0xca12d301e4d59afbU,
  0xe38cc2c6a0fd9ee3U, 0x2d732bb3f2c6e9caU, 0x1e3d19440771187dU, 0x9a88ce81bcf889d4U,
  0x5255e511aade20b3U, 0x77b2e0fcbc153d45U, 0xf582d9a8347fc3a2U, 0x910104e7d74f4c34U,
  0x5dcf54bb8128e174U, 0xd3261f412ccf41eeU, 0x4d3443e58fc469a1U, 0xa10992a7230eea66U,
  0xa1c5b8f3fb11ae4U, 0xf732b4c11ab7e3aaU, 0x7ff40b5e5201bd2fU, 0xecede54af20150ecU,
  0x68733fcca548acbU, 0xf27fd2b177e8143dU, 0x1a73ca6dbaa66dfU, 0xf3500da07a001454U,
  0x7692ba790307428dU, 0xe847f35c04711d5U, 0xd3afb509c20aefd2U, 0xcf8a04d70a28baedU,
  0x812c0b24f30f0cf0U, 0xb4b900300757eaa0U, 0x969f0a1653aaea65U, 0xe56c6bfcd4128195U,
  0x6435044ce005348U, 0x31264ab3334ab3a9U, 0x67fb8115e5d31652U, 0x24f3a2c291bf6600U,
  0x1bee200001cefU, 0x11e8300020766U, 0x1671e00020662U, 0xfffff6ee0001df62U,
  0x1b3c70001bc36U, 0x851300022682U, 0x185e8ffffe80dU, 0xffffb4b400001bc3U,
  0x22100000ad3cU, 0x1489b000071f5U, 0xffffcb6700005079U, 0x1c685000011b7U,
  0xc6d000019f70U, 0x1a24200003138U, 0x14a300004933U, 0xc93e0001ab83U,
  0xf224001101fa1800U, 0xff26f820353bfc16U, 0x2210001118f1f911U, 0x7effdfe261ebb2fU,
  0x60b141f07fdf70bU, 0xfa1cc7ee2f0ee628U, 0xfefdf5eb10dd060cU, 0xdde90c3124e7e001U,
  0x18f7dae3e12405f8U, 0x111a1dfd23efed09U, 0x32fd14d80ed8e53aU, 0x10bbd90cf811f510U,
  0x2af90bfe1522fa2eU, 0xdddcf8120205dcdfU, 0xd8f0d3072820f50eU, 0xf0be050b3d21d221U,
  0x29e9eb01c4c2180fU, 0xbc5d6e3f4b90bf8U, 0xfef0fee4ef20eaf6U, 0xbc9e820fe03e01aU,
  0xfbfee3bac1da22f8U, 0xe31714e5ee9ad5d5U, 0x1df0f012bd08e6ffU, 0xcc2fdeaf3e9ef0dU,
  0x8ff0be8dfdd1cefU, 0xe6ebefeee0f30504U, 0x10060bebe1d1fbf7U, 0xea16fc2201010ffdU,
  0x15eff7d6e2813acbU, 0xe1c0d3d5df06fdccU, 0x51ffd809be020107U, 0x40ae207f300e90fU,
  0x25dfe21a13cef9d4U, 0x117c6fd0e09c50cU, 0x22dfee18f7080413U, 0xe4d825e519ee0903U,
  0xc1173121027fccbcU, 0x28ba7d48ece50a30U, 0xdb05f3fbedc1fa17U, 0x1adf87f6eadaf727U,
  0x1732d018e41517bdU, 0xc9273e1954d0ce2dU, 0xee1fa15ed01db49U, 0x1ae49f24d83c0a18U,
  0x959e9ee7c3e38aceU, 0x970e051070efe309U, 0xba15eb271cd6edffU, 0xfed0d0f3d1ee10cbU,
  0x9f25224cfb433d01U, 0x2e90c113ac2148d1U, 0x96f50508f2680298U, 0xbfc5b2f91f06f91cU,
  0x214e103a12c02139U, 0xdc1c291d01172107U, 0xd20d1f012c6920bcU, 0xcdfdfaf410e33cfdU,
  0x9b301916e9b90116U, 0x282a4ae80fdd04feU, 0xdf14ef23cf3f07b6U, 0x17b40ccffdf5e3f5U,
  0xdb34f52420fa50f8U, 0x4a8a463ec8ce23b3U, 0xf93eff1e192a18a0U, 0x3e0afe14621fd59U,
  0xe9f425e2f8d941a9U, 0xf64ecbc516f5dc01U, 0xf440d70cea2fc7f8U, 0xd2cbced3f8e9100fU,
  0xfddd2df9a0fae7d6U, 0x26eb24d71ffde4a2U, 0x334ccc11a6edfc07U, 0x14f9b3f010e7cdaeU,
  0xdf8dbd9e6a42ce0U, 0x11ecd51703b3dac5U, 0x1b031200b811f7ffU, 0x161eea3e2037f432U,
  0x2eef22b2d0e21bb1U, 0x13ecf63de4cef0e9U, 0x9d9c8c9f9df2a2eU, 0xc4c49f022f0efceaU,
  0x5f02710de00cfa2U, 0xc0d60ae9beb2f181U, 0x25db03deefe0241dU, 0xc9d18d39f917beeaU,
  0x13d0e7b1edc048fbU, 0x4de80a0328e62022U, 0xfc12fea2081215f9U, 0xdceaa619fbd4c41dU,
  0x47d300ac16d8181aU, 0x26f1004adccc0bdeU, 0x1fa0be71546ec1fU, 0xa5c08afdedfbf603U,
  0x3dbd0e4d81f1aedU, 0xcab0920f312cdf8U, 0xeaf90ecfe947fbdaU, 0xa6bd912d0ee5a3efU,
  0xf2ddd3e32aabe3ddU, 0xddd8d7f8012b1023U, 0xdb0cfd1beefaee11U, 0xf23bd6f120e90114U,
  0x11fcd4e808e1d99bU, 0x41d6c04ff40924f2U, 0x8de0209f119e231U, 0xa7f7be2af416e602U,
  0xae2c81113fed6b4U, 0x37cab90de91ff8f3U, 0xd309fafa06fdf72eU, 0xc0f2a04821f8c427U,
  0xff210e00e729f6cbU, 0x1ef3b62121f3db27U, 0xf828c9226abc03beU, 0x18fcf90e01d04015U,
  0x46ffddeeb72de9c7U, 0x84ce0ec26b5def0U, 0xb6fde231d7c0fc34U, 0x31cb372630ac0632U,
  0x8370029b0e23be2U, 0xfdfddfd4cea7bf8cU, 0x34f4e62303c1fe35U, 0x68d4f50dfbfcc3c2U,
  0x222ad2cfe2d81bf7U, 0x143ee33b3e0904efU, 0xd31f11c1c10fed7U, 0x56d80fe604246b2dU,
  0x3f41e2fcf7d35e39U, 0xed67333e3faa4610U, 0x320f41f6e66b1213U, 0x7fd53fa1313d1804U,
  0x29e805b5dfe64269U, 0x1a37fc44e8e8efd3U, 0x513c3429b7222b37U, 0x3ff3d79df7fb1712U,
  0x2c48dcd6f4eb40d5U, 0xd9ddd6fec0e9f6c3U, 0x2d160214ebf42e12U, 0x10dbeae93e993b20U,
  0x3935e01936c8280fU, 0xcd2fc7511bd8eeeeU, 0x112013269eaa05dfU, 0x282620c4333c1c04U,
  0xf7c6d0d737d0dd8cU, 0x40e31d30d4233feaU, 0x51a2c150ef6bba5U, 0x18fef8b1fa1c2214U,
  0xc6cfd1d1243ac1fdU, 0xb5f4b1144bda0418U, 0x16f207fb0928f10cU, 0x51e413d1fb0fda1bU,
  0xc3d9c10534f48df8U, 0xca2cf3ee47fb4d32U, 0xc8fc191b44e90b10U, 0xdd1202df1fd83edbU,
  0xe240412cff24cfedU, 0x13f659e6e9ef41f8U, 0xac21d9e5d7f808d6U, 0xf8fcca22131ff6d8U,
  0xbec1f512812bdd1cU, 0xcce3a7e2fdf7f8feU, 0x80fe503e401f93bU, 0x2d10eaced2dfe973U,
  0x19d2a1c012fbc510U, 0xd91dbce719ceeb05U, 0xcffdbd10e7b90b2aU, 0xdad40d01ff0012b3U,
  0xe3f4242bd626ce1bU, 0x9fe7fbffe7f711d7U, 0x950fffe1baf1ff07U, 0x1243041ef8d90c26U,
  0xe334e819dc31fffaU, 0xb9fe9ce903d0c72cU, 0xcf17db2612f0a424U, 0x120700d705e22136U,
  0x1df0edebfb41d524U, 0xc20f1aba09c608fcU, 0x14dcf4ec0cf111ecU, 0xedd3021ae60f0c18U,
  0xdf40cc23240b2204U, 0xdcdad50fcd0a4226U, 0x940f0cf6e02128deU, 0x1c1611fef2eff808U,
  0xf0e3fa361de6e80dU, 0x1920080e14afbf06U, 0x150ff61020e2161dU, 0x200ae3291119dfe3U,
  0xecbfc8c50febf1ecU, 0xce30dac92edb1534U, 0x47e9161810b0b21aU, 0xcd1ef62cb4ebd7d2U,
  0xf0c5c3d8fd9ed4e5U, 0xcffbc4cd1b09ed51U, 0x14e60334eac3da49U, 0xb54712e5eefbeaccU,
  0x4d052e140ee614f5U, 0x44eb3d27f9fc171fU, 0xf00015d9e5e8fc21U, 0x200532e90e2310d9U,
  0xf9d1f8fc2027e11eU, 0x30c41f811e0d311U, 0x13daf509d4f5be0dU, 0xdac3bef6001aa8e8U,
  0xf2f0b4a82ee8cf40U, 0x1bf407e5fa07044eU, 0xcbffe0d8ebfbd002U, 0xcdf8f6200336e000U,
  0xeaf7eb414fcf01efU, 0xc3e5fcfb26222702U, 0xcc0601e3df360406U, 0x191704f00a0a4ab9U,
  0xdf173f19c74dd4fcU, 0xb7fe4eedd2de43e6U, 0xeae707da0ed9ecf4U, 0xccd8c8f61be4e8f2U,
  0x111202e4d7fefdb6U, 0xeac8fff5eb9cfffdU, 0xe4f7ed0cc3c9e22aU, 0xdc81cb0ff809d0e6U,
  0x39313f4cf0d04559U, 0x8bbd5d6a002d881U, 0xf43cc5430ee027b7U, 0xd62808f65328fb44U,
  0x35061e2332e6f2fcU, 0xd3ecd432dd4214eeU, 0x281902091d3022e6U, 0xdefbef214f59ddfbU,
  0x492811fc4ff64018U, 0x72554323b130f0eU, 0x172916d4f12b1223U, 0xf84f1f53fa3a2e01U,
  0xe90126ffdff53226U, 0x2db7f501ad0dd5d1U, 0x3010ddf7eb3b17caU, 0xeb2d973af610a5edU,
  0x2cf3f4bb23e22fdbU, 0xfaba074cf4c2ff01U, 0xd816ee0a0d21192eU, 0xf3dfd5131f229ec7U,
  0x1ee904a3500e3d3aU, 0xe72b0cd20c181479U, 0x240511e4f7d3ee17U, 0xc9fc1926f3ed03bfU,
  0xaba81cc7feded8deU, 0xf0e092d6ecfbeceeU, 0xbe1bf2f3ff23fb24U, 0xd9dff14a9cf7cf12U,
  0x2aceadb6d503b826U, 0x10bfe529c1bdf3f7U, 0xecd9062af1221314U, 0xc9cdc742ea2ab0b1U,
  0xf1bdc69963dcf6c6U, 0x121e6d8143cc951U, 0xef024110ffe0438U, 0x5253f45ba4bb331U,
  0xe36afb3f1f7c2704U, 0xf2200d0e27d9222bU, 0xe4ff34ec333c2ebbU, 0x1eda8ef91e0e52d8U,
  0x76524f4da0c0816U, 0xa82550e8e5e7ec1eU, 0x3e42cd8e749d8c2U, 0x67aa0bfedfd751c9U,
  0xcd0f0b4d18ce3127U, 0xf10008100bfd05ecU, 0x28130b0c3e442f1aU, 0x7ce720d737ec03deU,
  0x16442a279c5327f2U, 0xdf8010cf9c60981U, 0x201dcc0dd3e203beU, 0x69f7b8b3e8e7ecbdU,
  0xc8692d330204431aU, 0xd51dd2ed1ba1d4U, 0x3ae8f601dbe315daU, 0xd1f120029d00eddU,
  0xe7370020110314c5U, 0xf9130e17effe02d3U, 0xe9f2ffe24c00fd1aU, 0x362a0adcf51903b2U,
  0xefb5f8fa94f804ddU, 0xeed2f435cab3b3dcU, 0x1604da13ececf9ccU, 0x6b3bac8ffe8bef1U,
  0xf9fecef50107d4bcU, 0x1bbd9d5d6bda7caU, 0xf524ddeef41b15faU, 0x16a109fec321b6a4U,
  0xef02c8ddcd1e30dcU, 0x1e9dc31838e2c206U, 0x42ddb160cc40316U, 0x18c0b31ee2f0afdfU,
  0xdd1ce7ce0c5f0aeeU, 0xdf032b35e7d5f0e9U, 0xf80824380236c115U, 0x3beba8dff7cedee8U,
  0xc4bdd4b7e315f401U, 0xf31a3b0408d210f8U, 0x80d20d0e146b52eU, 0xfae9af1dc4d6e51bU,
  0x11ffb7b94a301e12U, 0xc5f4d7f343eedf23U, 0xe81fad40f28f913U, 0x19150c1df5fbfa07U,
  0xc6272228f602e0f2U, 0xccd55e0dc1e515b4U, 0xd913f4f2faeb2ac4U, 0x20f100aff511f6e0U,
  0xf045470aa9fbecf1U, 0xd7df50c7d1cbcc89U, 0x1d2c0809a8dbd5d8U, 0xe4a0d6b4d70ed3ccU,
  0xf7462923d41d0ce7U, 0xeb0357dd42e5d7beU, 0x1212100ae9030ce2U, 0x602effddcecd532U,
  0xe003e63846fdd229U, 0x1409c3260f4e23f4U, 0xc50f23311aec03efU, 0xeef717d31ef332e3U,
  0xd5cccf2c14e9f835U, 0xd60db10c0e27ee27U, 0xff1b195003c900baU, 0xdc2009b91bf505e7U,
  0xf106de18010efc2cU, 0xb3afbd30d11d20dU, 0x12f8e5e13cf0e6f6U, 0x523ebe60506d614U,
  0xf0414ae9f1ec09c0U, 0x26e9316ca2b41cb3U, 0x1a1ada18de371af5U, 0x122c00de06ee04e7U,
  0xf4d552feaa6fa3ceU, 0x15a94130e5b7c081U, 0x13fb3d05f9fcdad4U, 0xd3a7a921ec0cbed4U,
  0xd3fef9c2d434f3b7U, 0xf1020d1914fcedc5U, 0x1e0360e7f6110611U, 0x22d2cafb1302fbf9U,
  0xb1b150402162325U, 0x14d1fe4500171b1cU, 0xd725ea09ae080f05U, 0xee0cfbce0df5d2d5U,
  0x1cb50513e647bd2bU, 0x2086033aabc603c0U, 0xe609ea19fe02eaa7U, 0xaafb9bfaf315cef6U,
  0x1506fbd7fbfd200fU, 0x27053e09cde0caefU, 0x4c190b3e2ff1f3e5U, 0x5dfbe21fb2cf309U,
  0xd0ddb917231199e1U, 0x2cf8b138e50b0f07U, 0xb4dc0a0816390ff2U, 0xcd0318fe27252527U,
  0xbee8be0f2200bdf7U, 0x2504b0270412fcfbU, 0xd80d0c1b251306eaU, 0xea1ffa1cf717df18U,
  0xc8cee5ef0c08fce2U, 0xaf8c0283318fc27U, 0xdaca1be0222524f6U, 0x1e51735d1ee0a01U,
  0x80bfd01df0f1ae9U, 0xc99f747bcfb2ea4U, 0x17142317e71d12a3U, 0x1bfddafef31c1137U,
  0xf6080339bdef0df0U, 0x1ceee25b804f3abU, 0x50cd4fa1bf309c7U, 0xc5edc5182af2bd26U,
  0x13c31e18f9eaf2f9U, 0xebfcfb082cdabc0fU, 0xf408e6fe36edeb05U, 0xeee0e4f8dfeed727U,
  0xe1f9f50b0edfeae4U, 0xe3d1db2cc2fc25c9U, 0xd3f7f4090bfe019bU, 0xbb16ed0104eec9edU,
  0xebe918450efda7c8U, 0xffdc9eed0af114e8U, 0xc1c5fdf131f307efU, 0x81fbc0f80aec9ff6U,
  0xedeee928df0eea14U, 0xe839e3d214c6d315U, 0xf8e00be232fbf027U, 0xf0f3e701f5f218e0U,
  0xbd7ba0dea32060fU, 0xfaeee43223130a00U, 0xd2ef12ef130b0f1cU, 0xe927ccf9b707b6bdU,
  0xfcdb51d1c16f7f0U, 0xf8210a0f40fc0cfeU, 0xe91d1beb55ebf435U, 0x16fde2ffeb01f8c8U,
  0x2502c3ced6341616U, 0x182204e504c9d021U, 0x340702f43701f23dU, 0x57cae22ce5c62de2U,
  0xe6c0e8c2cae2d012U, 0x3704011ae9acb8e1U, 0x25a6400be44ca5fbU, 0x41d7e23013f4adf8U,
  0x10e2e4fd0d17cddeU, 0xf3f3fdf2270fec0bU, 0xea8b219c0552dafbU, 0xf8e5c54b642ad714U,
  0x2913d6e7fd130debU, 0xf41bd61d00322018U, 0x1bd71181064718f8U, 0x10061c190424e1f3U,
  0xb2f2f1d8135e0104U, 0xf11021310ed3e411U, 0xfce33eafbe7c41cU, 0xfc91e3e4f933fb39U,
  0x2c0b13efe76bf34dU, 0x133f0333ad1fd10U, 0xae113cc2d03d44bU, 0xf9d804111d0a150fU,
  0xc0c1707fa390e2bU, 0xf047dcc20be424e1U, 0x2cc3fdc92706d509U, 0x5c0233f9f8b728eeU,
  0xe4e20300e153caaaU, 0xe280e1800ccde05U, 0x3fd08e11101a4fbU, 0x379106240a28ff22U,
  0x1fc1b9c1d8171aefU, 0x183e19dd3187e441U, 0x2ce4dc2401050e47U, 0x1e981d1bafc220d0U,
  0x39b5e2b1c537d6f7U, 0xd7160a121993fdd6U, 0x18cefdbfdf1dcd39U, 0x40d40346b7e4f81aU,
  0xe2caeff90c2cd50aU, 0xcfd5e412e0ea0fd5U, 0xc6fcf9fc180ffe0fU, 0x4f7be10d413da1fU,
  0xd0ecdbe5c1022ae5U, 0x1deb0e2ae0bbd2deU, 0x1df304f00fd20609U, 0x2cd4e11fc9f721e0U,
  0xe4f308dbd2c73e10U, 0xffb702ecbc38d4d2U, 0x5b11100eeb0cf918U, 0x1703a6dddbe3ec33U,
  0x2cd60f16f0fbfceaU, 0xc1fa0816d91eebe6U, 0xe1ddee0ae2e80c09U, 0xfefd120306faebf5U,
  0xd30b040e32f4261dU, 0xde1c1a05114b0b33U, 0x4fe6f6e30edefcfcU, 0x132505fbe6091f03U,
  0xe89fb50f1c2cc9c7U, 0xe833bbfffe330b15U, 0xbdc9db0f54f8fcffU, 0xb71513e7d8eae9f1U,
  0xebf5fd19fcfdeb0bU, 0xd91bfcebdce0dcecU, 0x605fae700f105f5U, 0x10cdd3d9f3cafdf2U,
  0xf329eaf11a1723e6U, 0xf5ead925dd07f611U, 0xe0f205def5e9d20eU, 0x1a0fdde5e0ca0010U,
  0xf211fff7a330d5caU, 0xeb0a1fe80381bef3U, 0xfbc1e8f0fbffb7ecU, 0xe0ba0114c7dde3dcU,
  0xccc91beae20de7daU, 0x323435cf22eaadd5U, 0x3ee5ff03420bfbe2U, 0xcc86592efe24f9d3U,
  0xfd01f2b804ccf1cbU, 0x24daf10214d6e257U, 0x44e2c3c20803f41eU, 0xf0ed154ab6181196U,
  0x5eec1a7bb582604U, 0x2944f8bc19cbdecfU, 0x1ed3e109bedde3deU, 0x19ea380abe9c1200U,
  0xee700151cf4da25U, 0x70415f1fb7f0f66U, 0xcdd44f2781c27dfU, 0xacfefb36fc501cd1U,
  0xd8e00c1a3ef0dd3aU, 0x4d0effea17492857U, 0xf1739cc4be51d24U, 0xd4e326f0f1633ff9U,
  0x400c04f71111001cU, 0x232c1a11d6dd1a0cU, 0xc505111ce400f124U, 0x50fe92ce6fd4d0bU,
  0xe2d719e4f74728f7U, 0xece908050ff2d4dcU, 0xeefd0a5b0ff7bbc3U, 0x28b8fc4306f8c5fbU,
  0xf7e2f62d34d218e7U, 0xd3faebd911e32902U, 0xf2fe4519330c0eefU, 0xf6edde27f6def7aaU,
  0x3d2441522ddfc1f0U, 0xd333a4df1cc32c18U, 0x86e019ebd61608f0U, 0x2223f33e0ef31df4U,
  0x1d0fe04af71f35bcU, 0x9dfc0f7150116f9U, 0x5fde9033dac11f8U, 0xfafdda251c00c011U,
  0x61edc0823cef4feU, 0x224e20618011e26U, 0xedbffaf6f0b309ecU, 0xd01fecfaf605f0e7U,
  0xbe3a4f31f28becf5U, 0xfefaf2cde4f2eeffU, 0x1afebbddc9d60ceeU, 0xc3a05e5fe02ea02U,
  0xe4ddee09db450903U, 0xd2e22fdf23d0b5c1U, 0x1d3e6cc28bff61aU, 0xc0b7bb06e533940eU,
  0xf7ecf5caf900f0ecU, 0xeef3f20bfee30bdeU, 0xe2b9d1ccfcd8c000U, 0xefe111090b0cc3bfU,
  0xd6eedfd9fab6e519U, 0x1f17f4e908faf007U, 0xf1d31dabd6080b36U, 0x125221b0fe518b1U,
  0xe2e4f721d447f9c1U, 0xc5253dc9fdefcecaU, 0x37b9ceae17d6ddf5U, 0x8e6db0aeb1009fbU,
  0xd7ebd2ad9c2903ccU, 0xbaf5181e0a81b2beU, 0x16d3fde0c7e4f700U, 0xebd3f201d600ceceU,
  0xf31bd1a10cc713f8U, 0xd4d51eeef0cff8d8U, 0x18d012da87b30c37U, 0x23c71cf1f28e08d9U,
  0xfcbe04e720c6fe19U, 0xcef7a820e1d6fd06U, 0xe3fd0bf20db9d909U, 0x51cf3e8f5fff602U,
  0xbb5f2aef42cb8f0U, 0x1a0fb2f438dac1fcU, 0xfb0510340c9e03e6U, 0xb6e4ee119822cc29U,
  0x40033820012eefb7U, 0xf6f7f229f823aacbU, 0x16e607dc2c9adf15U, 0xa9cdd2fd0019d8ffU,
  0x3f49fc6f7e11434U, 0x301101eee4ed032eU, 0xbede26fe00f620d7U, 0xe30e0efbe6291432U,
  0x22c186d93514f71fU, 0x5221af2629f2ef2aU, 0xbcf6ddd0dd08dddfU, 0xcf0b0cd98102e2e8U,
  0xf0b9e9dd0f20e7e9U, 0x57201af7340ecf36U, 0x22faeb1c18fef6f7U, 0xe001ebfee8dcd8f6U,
  0x214093042c7e5dfU, 0xde0dcdc7d6363d55U, 0xbad015b1270e11e4U, 0xece4ff4c0fc94140U,
  0x26d9ef1d4cee0cebU, 0x3bede5323526fd32U, 0xdc1a0b285c0c0cf7U, 0xfa1cf4301dc61831U,
  0x16eb15f13e0fced9U, 0xb2fbd174c1d2756U, 0x4de20f357080e12U, 0x39fcf4582dbd1e30U,
  0xf2ebd5021aecb0afU, 0x4e9cc1219c7d9e8U, 0xb4ca01eb19fafffbU, 0xc7c62ce80c15c5eaU,
  0xf0d1e5fae98a0dc0U, 0xcf0ad415fce63303U, 0x9ed90ccae907ef0bU, 0xfde1f111e925e9U,
  0xedd10beffb35ecf9U, 0xe6141dd0ed150e00U, 0xcd42212d8ddfbfaU, 0x33f4d81df7f8ebefU,
  0xded01613cbe3f5fcU, 0xaef2d1102b91addU, 0x1ee90b04e4030cf4U, 0xa6aac709fe4bd9ebU,
  0x1925e1d0f08c393aU, 0xfe10d232e903cd0aU, 0x511c140b04ff064bU, 0x300a0eebc43a16d8U,
  0xe7c5e10b1f6c110dU, 0xcb151417f200fbe9U, 0x3a00210c1f13d5cfU, 0x2304e642d8dfd817U,
  0xf9f227160f10d8f7U, 0x35daf822cadb1338U, 0xdcc50efdf110bfe7U, 0xc5ffb1fa2b250dd8U,
  0xf6e5f8e00bff34f4U, 0x818fd1edd450327U, 0x38d4ebdb122c131fU, 0xf8250f14c50d1425U,
  0xf2deee14187fafe4U, 0x217050222d7272aU, 0x88102eed5305f6d6U, 0xe6eddd39fbe1ff1bU,
  0x54a0c10d9e94319U, 0xc0edfbf2bb310b9eU, 0x1420e4ecc70f20f7U, 0x63fe17c2f41c4c03U,
  0xb2b3e251f33306f0U, 0xf6c9c803125ec4f9U, 0x2eeced156c27f935U, 0xeaf7d21728e7b816U,
  0x6cfc9eb0a25da1dU, 0xf515a3135801e442U, 0xfcc9f9dd2f0bbc1cU, 0x22d00b1bfb1721f0U,
  0xdc1b1c47f53a3f27U, 0xaee0ae11ed2325d0U, 0xe41ef8eef8e8ffebU, 0x443a25dc2015092cU,
  0xefc021ead2ad0dbU, 0xe1f3afd23ea5b4b9U, 0x81bf21d735f1d1f2U, 0xd4a8e31ce114dee6U,
  0xd0d4d5e1f6d1c827U, 0xb9f3d9fd25ddc513U, 0xe1ea1ed2f9feeb12U, 0x24e01639ce0208edU,
  0x1b1a1b30fd3e3321U, 0xad7f6ebd0f93fd4U, 0x902408070a10f501U, 0xdf1d28dff2ff0409U,
  0x3dcc14e0b90cfc02U, 0xd4d70eca0796eec8U, 0xf3d9332601fcf731U, 0x4fbe3339fd9dcd9U,
  0xede6dcaff6171e0cU, 0x26fee3ce41e5c2eaU, 0xf7d6f7c9eec1a917U, 0x16d432fbdff61a11U,
  0xf5a8ed9fd22f2ce7U, 0x79956a02d1c6f5edU, 0xc7f5f6e7dc3cd0e6U, 0xc9cdc267ea08952dU,
  0x6a0c8f95f42347d8U, 0xf819bde0cedad003U, 0x4cb38e2fc1dad5cU, 0xa7d8db4f03f30b20U,
  0xf8ccccacdfe7e2ceU, 0xf904fae9fcd40231U, 0xfccd2ac7ec45ea25U, 0x352411032702277fU,
  0xd20f43c5fd391614U, 0x251e3428f53b201bU, 0x3ce7c2e7e5d804a4U, 0xaa301acfa9f50eedU,
  0x49f86a9e0a043a06U, 0x7ba41c2a70709a2U, 0x6d178ff88d0405abU, 0x863203f526eb12fdU,
  0xf7f32ff43af5490fU, 0xad5ca2c9c301dc7U, 0x5cbdea149c580ed4U, 0xeddbf9eb46ffa352U,
  0xfce4d9df5f0620fdU, 0xe102a9e32224ff1dU, 0xad06cfc3db29dc1aU, 0xa2ced2dfdaf0d40U,
  0xee0bd5f60e00a608U, 0xde52d0f425f94738U, 0xcff5fec8e602f5ceU, 0x9608d40923094810U,
  0x23f0161f1cffa00bU, 0x24f2dad6e71515f1U, 0xdf34c10f1a18eefaU, 0xb7f905150edffdfbU,
  0xd800e406f3c20612U, 0xb5fddfdaeceff04dU, 0x18c2b6cb48e9fa02U, 0x3f261f1ceef027d3U,
  0x17ec0cd5fee2200aU, 0xec0ce01ef8a3d4ffU, 0x63218dbd5eff407U, 0xf4e30c1dc6af0ff1U,
  0xdf202523d90dfbc6U, 0xdce8eebed2e301bbU, 0x121bb9f4e8000ee5U, 0x11d7f30e1fb10f0eU,
  0xc21ad8fb07880600U, 0xb6f5bdf81cf8ef02U, 0xe8f818c3ed04d32aU, 0x34f30023e11b1c05U,
  0xb06b0db98a5dffeU, 0xccf2a2eb3fb7fd01U, 0xdd29beebabc9f92bU, 0xaf0d4e1e5ce1bebU,
  0xb70ef411bef7ecbaU, 0xdfe4b9041bb7dafeU, 0xfa2fd1d6a4c8231dU, 0xf4aee2e206aefbdbU,
  0xf13707322581f52fU, 0x2f19d4d4edf80d39U, 0x15f71a00e00f04f0U, 0x190707fa250f14edU,
  0xe0f8ac08bdbc090dU, 0x2a0ea8f121b7f115U, 0xd18fec0ed230414U, 0x2ce10be507f524faU,
  0xf036ce56e70ff296U, 0xf003a5d51a230ee1U, 0xf21604e312e10d14U, 0x21b8e618fefe04e6U,
  0x22bf02f816edc3f3U, 0x7dbf0150c2c0422U, 0xf2da17d63feaf6fdU, 0xf4f1bd170c210b08U,
  0xecfc090ffb29eff9U, 0x3edfd36ce15f211U, 0x306f0e7ff1717fdU, 0xf107fd4af0082312U,
  0x907292e1f1701fbU, 0xc3f32bbcfe1dceU, 0x1ae8ead80524e005U, 0xdfe3e33a00eaf0f9U,
  0x5dee8c81cc3f91cU, 0xdffda01c1dbee1f1U, 0xc3ddf3dcfd0af6f2U, 0xcbc3d91808fed4f1U,
  0x180ef8de0ad4e8feU, 0x2cdbe4faebd40b09U, 0xd017ed08fe171ff1U, 0xf2fb1a22280ce408U,
  0x2d025525e8112b06U, 0xa0012fbbaf1e5f0U, 0x140ff7e21316fc0cU, 0x27e7ee0f04da0118U,
  0x8ebcebec9a906c8U, 0xf4ddeb250f81edcbU, 0xf6f6fef0c5dde400U, 0xf0b4dc08d6e2b0c4U,
  0x1221ef1111d71a02U, 0x26eaf422e1ef01f6U, 0xe13d8fed00bff15U, 0xe8fbcefc0211e0e8U,
  0xe536103f0e30f30bU, 0xfff11524f7420ef2U, 0xfefceef7330306f3U, 0xff15fa1ff630e622U,
  0xdbbece11f51cdd94U, 0xca29ed962ed5f321U, 0xdcf0e1bc4ac9c5dcU, 0xa9bff22c0e02bbebU,
  0x1dacad1f79bd6a7U, 0x1a33bdfb04a4f102U, 0xccebfea121de8107U, 0xcdaede1e0bc9ccc2U,
  0xfff8ecb20caaf7e7U, 0x202aad1feffb1a30U, 0xdf0cf8bdfbd9b224U, 0x26f4e81423fb17f0U,
  0x1df5e7eac6f7041dU, 0xedd41ccd0890d9deU, 0x33d71db30718c503U, 0xfca0b80eefd8c6e0U,
  0xd610f599bdbf0e09U, 0x250fdb0c1184fbc9U, 0xefd216afb719e1e7U, 0xfb88ca0301e1e1c8U,
  0x528bf9925d3083eU, 0x17faedfdec0beaeeU, 0x5f505b0b6480a19U, 0xbeff3da07de1604U,
  0xfb012d0eeb1df797U, 0xdff735c7e5f9ed13U, 0x320efe08cef80ff7U, 0x2405e4ef06fd422eU,
  0x615f3fdd02403a0U, 0xe3072d0ffd0bf408U, 0x261be7f9ddf7fb0fU, 0x1d06d30f0efa0604U,
  0xf02af8f31d2606d8U, 0xedd30420fc2beec9U, 0x2ff2e4fbdef402fcU, 0x4114f30f19ed1c38U,
  0xd805bd81ceb147f8U, 0xd13d01f61e9cc609U, 0xdf0512dee8cad301U, 0x41f3e929aaf239d4U,
  0x1d12dda3bfe93bf2U, 0xf52822efe5d6c4e9U, 0x2e20faebf604f62cU, 0x71e805fbeb0a320dU,
  0xa500f727f41ecb06U, 0xd2f01ae201cbe8e2U, 0x21f51cdfee02f6f5U, 0x12dabdfa02f4e6fbU,
  0x1231fcc726aa0d0eU, 0xf92eef42ffffe21dU, 0xf73922e2e21cfb16U, 0x3d2df4c91bed33e9U,
  0x6fcff0ff5124d0bU, 0xedd4d8fea93df609U, 0xee14eceef71902f8U, 0x2942e6a3f4031deaU,
  0xdbb32935e251c8f7U, 0x4b8001e0422e6c8U, 0xe9eafa021e4203b0U, 0x8787c0db3820c0d5U,
  0xb4200ff0059fec0fU, 0xd10fee431012ef0dU, 0xd8020ceaeb041405U, 0xd0fc0ecef6bcede0U,
  0xc3232a44f4349b04U, 0x8e4e31bff031711U, 0x912a07d82323fccbU, 0xe2e4b4020110c3e4U,
  0xdbfa1b46b63cd7e5U, 0x12c1e3ba0dfffee5U, 0xfafd19ee51f80a9eU, 0xbac4c50f25f914dbU,
  0xf012d5f4eef9e2f0U, 0xbf1da9d031b7c127U, 0xbb3f00f6fff7013cU, 0x36a00337db033c02U,
  0x13b6c0070511fbf9U, 0xe0e397e8e300b540U, 0xe408f41b100fd8e4U, 0xfde7180bd4e90307U,
  0x6e1e2ce3f1e0ff5U, 0xf234d5fb11f4fe3bU, 0xaefcf6d247d4d007U, 0x1341c29c2f9ea30U,
  0x4a380d22e3381a3dU, 0xdac5ddeaefa40e18U, 0x5f0df0518f5cd4fU, 0x2fe8a9fe1fe4eb15U,
  0x4c0aed15df18ee21U, 0xe04d422e3e8e0e9U, 0xafefcddee5f3c803U, 0xcc05e60ef3f4cc61U,
  0xcdbe1df28fad615U, 0x190ff4e226d7f90eU, 0xe4e6f5c13b17f117U, 0x9fb6f90d31150bebU,
  0xeb3d3213fbfb2cedU, 0x3db149e2ff3324f5U, 0xea20e709d63e2931U, 0x63c2503f23717f4U,
  0x22342e158e36f9e9U, 0x25ae66edf0cce781U, 0x3228c5fee5080bf5U, 0xda24d5ef08e601f0U,
  0xda6f0405d9d538f7U, 0xd8c96120aa0cabb4U, 0xec24c2168de01ce4U, 0x17b5e0d028e8e8d8U,
  0xec84fceddc391fdcU, 0x461650f8eb00d6faU, 0x2d3d108fbc3cd03U, 0xb7ffd542e8f6ff17U,
  0xd8afd3020ad1e121U, 0xdc07fac2eebf1613U, 0xc6eecce511b7e5e2U, 0x8effc02ee0001f4U,
  0x99200701e5b73431U, 0xcbba0fe0c51b2b24U, 0xcedea3d70912f0U, 0x54310418e7ff1d3bU,
  0x12c60ce9c53fb3f6U, 0xd8c8eccce8e6ae08U, 0xffdac9c535bfc50dU, 0xbcbcc741d2eea203U,
  0xd8facdc2bbd9100aU, 0xcc06c3fb0581bacbU, 0xd4c6e30425df1b19U, 0x27d20525ca104cf4U,
  0xfd49161b08f5212fU, 0x1fd9a8eae14620e1U, 0x14c004bfadfa24c2U, 0x2e2c05c4c5c90055U,
  0x12f3e3f0d24828f1U, 0xd5fefdd25793c8e7U, 0x3e6f2e61e04cafaU, 0xe1a4ee0fc1051ca7U,
  0xddfade8793a35237U, 0xc903c4adeebfead9U, 0x3dad8dddeaef227U, 0x34ae25f4e3f02e27U,
  0xab43f012f6eb2e20U, 0xb2f69d33b445dfdeU, 0xd10b11fa07ea1f0cU, 0x3b360ad2fdee1021U,
  0x29f188d4f5a1062cU, 0xefe6a725f30c0d33U, 0xea37f2f4b431f85fU, 0x3c2cf1cabff136e0U,
  0x39e0de24a332ebf8U, 0x24f50febc00ae1e8U, 0xe53b26e0d735f11bU, 0x16fa28e1d60c1fdaU,
  0x2bb6bb16ae091d03U, 0x143fc3180adcd3fdU, 0x3ab803bbf40bd25aU, 0x13a53fe0bc4406deU,
  0x174fd3f018d8f848U, 0xa7e7f53c0df229b9U, 0x8342d2fc14af4c5U, 0x3621ea96120838f7U,
  0xef5d5c5fbf100f0dU, 0xc9c32acfd2e9df86U, 0x210eb001e2471f8bU, 0x2ae22cc919222ae1U,
  0x43a2d2002edfedaU, 0xe8fc02fc1300e8b5U, 0x340704c5cef712fbU, 0xfeb74811a21beeeU,
  0x12fac11ed2cfcffbU, 0x56c60c1ecf3ff2e6U, 0xf55dcb3405c9fccfU, 0xfcfcbd92ec14fdbeU,
  0xfc5d516a39fb28efU, 0xd9911d9f5455fdbU, 0x8c5ff9331cf20b90U, 0x651fcb00e0604a9U,
  0x313737780f016003U, 0x2f0d27c12d2d1ae3U, 0xe915f65916a028e7U, 0x256442d3d5e7f3c5U,
  0xc0a05f737a70df9U, 0x1802daf5db2d440fU, 0x1f0ff3f0c920fd11U, 0xe93800ee140ded2bU,
  0xc2cea282eb716e2U, 0xf61cad0dfb490a1fU, 0xd92403ec1416fb05U, 0xea3c04f30e18f40eU,
  0xe8d70310fcf8e0deU, 0xebdb8103e5fddfffU, 0xf2f505fb1b0ae4d0U, 0xc619f10f1506c021U,
  0xfec9dfdf401edef6U, 0x311a170f0719141fU, 0xfff9effcf4fe0404U, 0xdd10cc01e7ffdef7U,
  0x3fd7eef11dfdd8ecU, 0x3f0c0612e71a1527U, 0xc9eafae524f510eaU, 0xa10e091ffffbe1e5U,
  0x20c6c101d0d6e4ddU, 0x1510a31516ede700U, 0xce1bf3cd141c19ddU, 0xc9f1ff02f005c5ddU,
  0xf9082fcc232d0dcbU, 0xe61532e8010e0c0bU, 0x27cef6f8f906e33dU, 0x1bfd0e16141def18U,
  0x27f7e0cb0417cbd1U, 0xf6fe09022bb6ed0dU, 0xf8050709fb23b624U, 0xd8c7e31bf911eadfU,
  0x7fde4b4ebeee0e1U, 0xf2fefe1e1bc2c5e0U, 0xf0e222d6edfefcf4U, 0x14c40e19ee16fbe7U,
  0xfde10a440b0208d9U, 0x8fdefdc0803f6e7U, 0xdf4f3f528cff9f8U, 0xfe0bd3091213d726U,
  0xddc7de1e0fe7dbccU, 0xf4ffd0020fef2afcU, 0xd0e4e8aceafef704U, 0xf1fbf819fa05e6ffU,
  0x2f1e60319dee6f3U, 0xe5f0e50ded1d1ae6U, 0xc107dbb509fa12fbU, 0xef2b1d0701e808d3U,
  0xfdd3000f0af5efbfU, 0xfd04efe907decc12U, 0xafbeae92e14e618U, 0xefadd81a060bed0aU,
  0xecc6bff4d6d3cddbU, 0xe916af150e94d2d4U, 0xddeb0ebeeefaa2edU, 0xeaa2e6ece00acfe3U,
  0xe5dce1d9ece0b8f1U, 0x5f2b8050df1e8dfU, 0xd203e9d2f412dee1U, 0xe3e8ff2100d211beU,
  0x10e30412d014f2ffU, 0xbff31081bb9e102U, 0xa02fcc11ed29a01U, 0x13bfe3fb0dc9f7faU,
  0xe5c5c7bce5f1d8U, 0x1d09e5083281ce0eU, 0xdbe918b5fb058d17U, 0xf8a1f72ceefedce3U,
  0xf714e9afe4e6eae8U, 0x1b1500df17e2f71dU, 0xcdcee0bce2f5c41fU, 0xf9b6fd1efee637c6U,
  0xe91af4c71dd0f2feU, 0xfc19052509e51c27U, 0x16ff18eafcf5f03bU, 0x122623160013290cU,
  0xeb00ded5e1f51302U, 0xeaf60e10fbccf51dU, 0x5eef5e1e6e9e43aU, 0xfc281303eaf5efd4U,
  0xf0f4dcd1ec18f3ceU, 0x1ef71deac50d01afU, 0xfbe500c5bee3c3d5U, 0xed15faf4ecf7e4d3U,
  0x22f036fa4ed6100bU, 0x72c1602fedb184fU, 0xdaf60fe91e02e100U, 0xc8daee1a09fae703U,
  0x7c5ec810ab9fcfdU, 0xae2d63b37ff0a52U, 0xc8e505d5dd09ea42U, 0x1a4d0a15bffb0623U,
  0x1bd2f7e10b0ee508U, 0xe1fe18e6fb03ed1eU, 0xf5f8ef00e1f409fcU, 0xe4d9f8faca0329e7U,
  0x512440738df18b5U, 0xfffb3cf1cb1726d8U, 0x21d506c901d80917U, 0xc9e9ee005106bbc5U,
  0x8eb12d614d9e503U, 0x17d5e42f0e23212aU, 0x31eaddefe0ecbdfeU, 0x1c23e00319d9bd3dU,
  0xffd4ded4fd10ccefU, 0x1028f802e11f112aU, 0x1e9f6ee0113d6e4U, 0x6e6fdf9eaf80e16U,
  0x1218455a208e00e7U, 0xe8ca263ac1770df7U, 0x53319433d8df10b6U, 0xcd73ffe0de03bbc0U,
  0xf47380c18a52df8U, 0x16dd311fe5581f18U, 0x7030d938e9c82ed7U, 0x944eeea7c811e8a5U,
  0x1446493407d604ebU, 0xfbc724e6133cf30cU, 0x11e5c0fc32db1bb1U, 0xd0530fc60d3d1db9U,
  0xbec6a31b5fbea8bcU, 0xae07d225ffdddf48U, 0x8ace1fddf6c8a7f0U, 0xb0e32e0becb9b8b7U,
  0x4c3c2f2f7dac0cbU, 0xa345f5b91c01fd1dU, 0xf8bff7b718ba96e1U, 0xc2bc10f1e7b7ce9aU,
  0x11cdfed1ffefe41eU, 0xbb182ec1e32c2ff5U, 0x14cad41806ddcc24U, 0xce30f39ebcd1dd7U,
  0xbcb9fdc2fbc901a7U, 0xd31533d213d90311U, 0x310b00e0ebd2d41aU, 0xddc01f04dcdc1bddU,
  0xd71be181f187f2e7U, 0xc0022317dbd7ac2dU, 0x17ed3b0800b7c0f0U, 0x20de111afca72213U,
  0xf1e3b2a005d1e0d2U, 0xa7eae6c0cd2ee613U, 0x40e51ceaf9c4f43fU, 0x18e611252ad90938U,
  0x1100f8ade51d1409U, 0xdcee490129ebbcfaU, 0x9dcfbff0ddbe6f7U, 0xb97db24d1c22006U,
  0x325fedb0cb51911U, 0xc1e106c3f10c10edU, 0x16f9d304e8d502fcU, 0x5123d51e14fe1424U,
  0xe91115f4db2afef8U, 0xe2c80eb0d5031bfaU, 0xe903fbd615f106e7U, 0xf7ffb810ddcde619U,
  0x2eef7101ac50a1fU, 0xde625cee94b1221U, 0x231011f7022806bcU, 0xfa11eef10ff2f714U,
  0xf8070021058124cfU, 0xdee1c3ddd4491afcU, 0xf3eef3f6052524a0U, 0xfbfce8db1a15e1f8U,
  0xe6071b11ecede610U, 0xd9f6f4e70a2d1310U, 0x61b20e8fffcfad5U, 0xd40b08f40ceb17fcU,
  0xd918c508d5eb2ae8U, 0xeffcabfe390f09d9U, 0xcf2e7cf1ce5e40fU, 0xedff11f7faf9fae1U,
  0xf2ebd806e8c0e517U, 0xad02d5df21f5f9fcU, 0xfe12f60412fb02e2U, 0x6f128e50503f9f9U,
  0xf60d0d08fcd8e6f1U, 0xceddfce30af6deecU, 0xe9fd15cf23e703fcU, 0xe607f9fbe8fff727U,
  0xeef80905111f10U, 0x1fc30811e70309ecU, 0x20e20242fd1f00baU, 0xec3d20c1adde8e9U,
  0x182bc21b27951f24U, 0xbf2bc7dab2370bc6U, 0xdc2e2ce7fbf4f0bfU, 0x73738de1ede2210U,
  0xccfd2f2ff004c80dU, 0xc0de16ed992407ecU, 0xd507221ee33809d6U, 0xe3ccf8eb1bdacbe4U,
  0xf504bae51314bc0dU, 0xb514ddf64d0331e1U, 0xf7fbd62f1bd5ece2U, 0xd8e9f104fcc823d2U,
  0x3d07f20614b02610U, 0x8de0a00ec8ef08d8U, 0xc8d3f9e0ba0ffed7U, 0x16f7ea15e6b63f11U,
  0xa2df382ff526f2f6U, 0xc3b8c5d1971efa81U, 0x9afee4f31f161acaU, 0xf1fa2bd123f3a017U,
  0x290aedd3c04a12deU, 0xe3dfef1514f40415U, 0x3e1cafce6f1ddceU, 0x32ffdb18c0c006efU,
  0xfd39f820cff709afU, 0xeff89d0daf2622b5U, 0xe1ddd8f4fe2ae6deU, 0x2835f2081e07fd37U,
  0x8bb561006210decU, 0x17c6e90302fcd3efU, 0xe0d550362f0bec26U, 0xfb05df05edf5cb01U,
  0xf1d8f808d5e919baU, 0xcf0004c61d14eff7U, 0xf6e007ec09f7e10bU, 0x1724e61da2ee0e3cU,
  0x3e3dad7de31d9e8U, 0xfde4124524ebd8d1U, 0x1910e002ef12c811U, 0xe4d3ddfcc007e8d7U,
  0x2f06edf1f62725e9U, 0xadc0823f319d3d3U, 0x51e101404fbb20dU, 0xe0ee082bebf9ccc6U,
  0xcc0c0eff9cccc04U, 0xc627c907f6dcff13U, 0xaf14fa14e8f8c708U, 0x1a220fdcbbb411deU,
  0xca9bb0d8edfa81d2U, 0xb5f3f91224d6d818U, 0xf505e6ef1a13b714U, 0xcbb8ece894e0079aU,
  0xfdd4ffe9d918c9f7U, 0xda0c0df4060fd215U, 0x8f4e8dd0c00ad02U, 0xdcbcda09d90eedf4U,
  0xe8cfd1ba05e2d401U, 0xd613e0f416dcf835U, 0xf2f5251de5f5f7f8U, 0x160118e6b4f81ae0U,
  0xe6d4df02fb1fd519U, 0xdd1feb3cf624ff36U, 0xc707fb0d23d1f4f8U, 0xf8e9dae2c7eef7f7U,
  0xfcad3131e13b9dbU, 0xe002d317150fef0dU, 0xab0317192fe6c412U, 0xf6f009ffea0318U,
  0xbe59434ab5e0f210U, 0xc8c30bf2c1da07dcU, 0xdf2510f0d315fab5U, 0x142714e2bd104abfU,
  0x110f1911c43cf814U, 0xf2a54c0fb2a5d3dcU, 0x180d3519ea330817U, 0xeed2d4dbf808dbe0U,
  0x1021e9d127172107U, 0xeb0fdd0e2b2e17e1U, 0x6cc160b070ff506U, 0x26e90ae10ff8351eU,
  0xf1c9d22d3ab6f2e0U, 0x2224d5e02d3a3e32U, 0x8cd1cd0ad3c9ff30U, 0x3063f815c1f730c7U,
  0xd012375116dc020eU, 0xcde804f1ed0f3023U, 0xe1e4cedbf9e5e6cfU, 0xf71f1c1b0bec36eeU,
  0x1d250d26c81016f5U, 0x10082e0a08dde1f3U, 0x1b0bf81808e7f4caU, 0x12f81029202c2df8U,
  0xcc9eb48111f2bff6U, 0xeeecfcfd0ed0d405U, 0xf5e82207dd24de30U, 0xbd9cb37ecd3c8c7U,
  0xd303bdce2bb6c928U, 0xd2e7b11114151035U, 0xc0dad528effe1b09U, 0x2e0a0a1ddff113f8U,
  0xfcd5de11f508d3edU, 0xe61e041716d20be4U, 0xa41bc7f73407f012U, 0xf2d52924d5f6d90eU,
  0x15081b55e909e9b5U, 0x300bef1cdcef0432U, 0xcd9b1b9768f7e9f9U, 0x130af813141711f9U,
  0xfbf7fdc20afcd4fbU, 0x1f1f1d0334c6d736U, 0xfc83821ff12e51cU, 0x1dea020eee05f610U,
  0x90dfc0be90714edU, 0x2a2aebf8feff07fdU, 0x1ffd25b60ef0a413U, 0xfe5f6322bb1dacdU,
  0xe01404212fde1502U, 0xea491bff04062021U, 0xf1a10caa5319fa1aU, 0x6e50641f0f40decU,
  0x1a03f6b4c0fffb1cU, 0x90c2034488cdb42U, 0x1aef18f3e31e0e4bU, 0xfced49e6ed1028b6U,
  0xfcd5e40ad204b7b7U, 0xb031cf919be9edcU, 0x81b28e902fea517U, 0x21af1621f3c9f1d8U,
  0x141e0ac9bbcd3a02U, 0xe411f1faa4c906faU, 0xecd209d1f015110eU, 0xe718fff1effdf4c8U,
  0x24f20894a6eef8ddU, 0x1b21e8243081af05U, 0x2200e809e7e7da3aU, 0xc314e1ebff04d9U,
  0xe6140117ef0e0894U, 0xeaf50ad506feb6eaU, 0xa190e99e41b9d13U, 0x1982310e7d4dfd3U,
  0x5dbda04ef0fce04U, 0xe42eca20fec829ffU, 0xd8f619eb101c2113U, 0xeed4dd040bfee8e3U,
  0x50ce1f0ceb4d808U, 0x8dfb8beebf6ed29U, 0xe8f5f4fcf7edfd13U, 0xf5cd00eb0304f7dcU,
  0xddefc120d3f0d1f8U, 0xf80dadce000bfffcU, 0x130c0d06100907fdU, 0xfff7f2cf3cfc261dU,
  0xfc2704efc90a3f0cU, 0x3b2b3d0c2702ca05U, 0x5d10fb12c9d00a25U, 0x42f8f5e0e9e61be6U,
  0x150edf14f4ec1fdfU, 0xf1d411e90e15e3dfU, 0x51eef000180d180eU, 0x24dce9ee190ad7fcU,
  0x107e7faeae0f4edU, 0x3e9d9e61fdef8efU, 0xd1fddfe1dbff5e2U, 0xe1d8fefe34c9f30bU,
  0x2cbf18351700ce08U, 0xf8e4ccf4046b0562U, 0x8cb04fa540d0ed5U, 0xdb16e127e7f7e706U,
  0xd501cff906bbc8f3U, 0xcff81eb0b2dde3eU, 0xcbea06e645f0eee3U, 0xebe9e20ad5f20dc2U,
  0xeef2d5e5efd80d1fU, 0xbf1dc61525fdfa45U, 0x95c5f2eb391001fdU, 0x12f0052b17d443fbU,
  0xe817f3e5ec03ce18U, 0x1136c41207fff011U, 0xc609fb21f8032efaU, 0x28dee8f72fd5c3f9U,
  0xfde70105dde70028U, 0xf31fdf0ee1060005U, 0xcb3ac9fc01aad51cU, 0x3cff070bd606ceffU,
  0x45e3eabe1dfb3bf3U, 0xf01708342ae7fa41U, 0x260607df2fcb0f6bU, 0x2251117c7cae4ccU,
  0xfc3630400bb9bb1cU, 0xfcf648afed030e48U, 0xf0291ee3f3071713U, 0x6120a06f40dfcb4U,
  0x1619fefb2e321ff7U, 0xfb353efd3b191d56U, 0x3821f10429d7134eU, 0xf1fc1b1de7ecfbf2U,
  0x61ecdb11312c2c3aU, 0xdb50231f1ef2e17fU, 0x1d16212d34e6e311U, 0xece1e20ae3f307e9U,
  0x561a4e3c6adddf14U, 0x46e4f2b9c2591f5eU, 0xf90e08c0ecbc343eU, 0xd2252626ee2b28adU,
  0x322204143e2a2507U, 0x41167a0a1038391fU, 0x3de9e3ff05bc1259U, 0x13b9f2d60e39fcU,
  0x5ff403f61c4603efU, 0x40791425f31d3b6fU, 0xe611591406b30e27U, 0xce4a12230e033ab3U,
  0xe8f6cd13f336fee0U, 0x213201e9392eba51U, 0xfafa10f62801f149U, 0xfdfa0b25dc27240cU,
  0xe51f88d1d5b8f6dfU, 0xe60ddfc43efcff56U, 0x50adbff33f7c50cU, 0xfa50e5611fe6a0cU,
  0x1df4f9dafddf0c0fU, 0xe3fda90cd9dffed7U, 0xf23aeee4fdbe0230U, 0xb011f18191c424dU,
  0xfe3844fee510fe2fU, 0x49f14afcf8191ddfU, 0x2b28f42333461e0aU, 0x11aa25050eff101bU,
  0xf412fde30bbd4a01U, 0xe25edebdf37d7b7U, 0x60007ec1d0bd5f5U, 0x3e1409251ced523cU,
  0x2507220af6e601fcU, 0xfeb1ede4f90cc7U, 0xf2153af24f14d8d3U, 0xe2c431fd59c0db4dU,
  0x49f0e1e4c90f1508U, 0xecfa0ff7de091eddU, 0x37afe82b15ead100U, 0x30e9eb25d91f25f8U,
  0x21dfd0edb60b00ebU, 0xf8d907f9efe5df9cU, 0xf3f411c630efddc6U, 0xdeed8144f5d2eaffU,
  0x210e1dffbe0a07fcU, 0x1bd1ccfdb6bbc7aeU, 0xe8fce8ffef0ae4fcU, 0xd8b2cf30e4efabe7U,
  0x7371218f5d0ed08U, 0xd3e6c92b18fa03c9U, 0x1c2cfc1acf331121U, 0x13f612e839fcfff7U,
  0xc8fb111002f613ebU, 0x8fa13f20410f9edU, 0x3d35f80212ecf010U, 0x21e8eec60304f4eeU,
  0xf0defb1027050911U, 0x41706df533bfa37U, 0x141dc40208f50208U, 0xff1ce8f6c3da08ffU,
  0xd08e14a10240301U, 0xc5da9decfa3505e6U, 0x2327030115de17fcU, 0xe3fe0bdc300afb18U,
  0x26bced2d04eea0ecU, 0xd8d9a3071828ef19U, 0xbfe809f311eb13f6U, 0x82f507081e110800U,
  0x4c5cf1913de81d2U, 0x50ca4fef42cd521U, 0x880df60039f700fcU, 0xbb041ffa07da2507U,
  0x6dbe231e04de105U, 0xd904e907260df6f1U, 0xbd0be5ed4208fa0fU, 0xfef9a6171ae1dffdU,
  0xc7e5eb16f219c30eU, 0xfaf1f8df17e807f2U, 0xd7070d07342a0a03U, 0xd0aff12005e4e3cfU,
  0xe304d80ce4e9d7aeU, 0xe73dd9181d06f712U, 0xd008f1f81c27fa0dU, 0xdbf11132f2e9f3feU,
  0xf432eafeceed0a04U, 0xcf5f0df0f05f515U, 0xeedf2105f5261303U, 0x5d8c62ae6f42ddbU,
  0xcd0311190193ae43U, 0x99eff5fdefe4d8daU, 0xdbfd0c14f9f41704U, 0x1e1717e014e70b0dU,
  0xd2420226feaba405U, 0xe906fe2622090029U, 0x9ecc0dbae736ed03U, 0xfe1a2c0132da45b3U,
  0x283bfec1d11e4113U, 0x11d829ebb497b8b2U, 0x444efff9f0d40731U, 0x5601d739c3aa0d05U,
  0x38180df4066dfa2bU, 0xd4c4201cddfe27d0U, 0x60c28171a1fe1ddU, 0xdd00d7ebefcb1324U,
  0x98f6fb4b3702b50bU, 0xbc36d5e1f4e157fdU, 0x81c524dafff31430U, 0x402112d4e8f41de9U,
  0xf9c8fe00d4680814U, 0x3d00fe9e8f5a6fdU, 0x2031309f92ae832U, 0x10f61b27cb09e60cU,
  0x4ef4e3489c6ed9f0U, 0x11c036de218c00a1U, 0xdf17c10033e90ef9U, 0xd4d8c207e4e2d5f1U,
  0x2d7bd22d9ece60fU, 0xfd2abdc90ecf2e30U, 0xd4fdbd28bf07f818U, 0x11303ce1c3e60ec9U,
  0xf01cf7def0040e16U, 0x8eb490019dadafaU, 0x21ddcebf9cdfbf9U, 0x6d2d431fefc12f2U,
  0xb6d804e7f8dcf003U, 0xec07310d1cf2e31aU, 0xe317dc03dbffeaf6U, 0xeecefa1303c117e7U,
  0x1ec07e9f7d2d60dU, 0xf20206e313032712U, 0x17dc04130cb40635U, 0xf73df40200fa37e4U,
  0xee3119e9b4f318ebU, 0xf79419d0e1b20dcbU, 0xe0380904dde810b7U, 0x2cd9d2215e9fff7U,
  0xdff722eef90ad6bbU, 0xdb0a07c8a4e6daU, 0xbbf6f5e0d8f6fa03U, 0xe5b6a80128c6bf08U,
  0x5cd09ee2115e50cU, 0xcf2705f424050230U, 0xfcc7100117dbfb19U, 0xf6f9171afc0725ddU,
  0xfc1f1926cad9f0f8U, 0xf2a4c9d3d2db33d1U, 0xbf07f3bcce2c0ec7U, 0xe81bef0b36f1f000U,
  0xdf0b19fec90b92bcU, 0xebbe5feebd1f0c1U, 0xc4191fe9e9f6fdeaU, 0xbcb781fc17ecbb08U,
  0xf7c9fc0707ec000bU, 0x13f2dc042d05c421U, 0xa0d1ffe36fc0d35U, 0x6ee031ee60cebedU,
  0xff2aef3309031bf5U, 0xe2ef10cde03e8f2U, 0x1723e6fa48fd0eccU, 0xbd2e32bf92912f7U,
  0xbef7d327081f3bfdU, 0xf538000f08212107U, 0xd5cffa1616c6f0f3U, 0xfc080c190711e3d7U,
  0xea270b072f0afff9U, 0xe90c04f60107f22bU, 0xe7f7d40f26182204U, 0xf93afc0524fc1fcdU,
  0xf1aebdaad00f9f8U, 0xe23def2d3c1d8bdU, 0x6cebfcff12e6c736U, 0x49f8fdffcf06fe0bU,
  0xe5f4fbc2baf208cfU, 0xfbe90f1f0897bdbeU, 0x5111bf21d9fd952bU, 0x1cfcd521a90ad6c3U,
  0xbed23cb103b0eaeU, 0xd6e52108d9d0e1abU, 0x3618e607e0efe00fU, 0xcfacd2904f7e7f9U,
  0xd0f4cbb1afbddeebU, 0x2faa91a13c9c705U, 0x303f3ccd50b8d36U, 0x202f0c002dc9fff1U,
  0xd6abaebdbed7c9baU, 0xec12992c1fc99bfbU, 0xe2fc070cd12cd1ffU, 0xce9b1a02b4f6fd0aU,
  0xa0c9d322cf3dc5ddU, 0x1118e2f614fc81bdU, 0xee307fbcbf49413U, 0x2a1fd1fedeefb26U,
  0xf1c443d053caa325U, 0x1d5c2d203dfb3225U, 0xeb52818f628075cU, 0x42293424b3005addU,
  0xcebbcbf0b8108956U, 0x2508f82b3819ec26U, 0x1720fb681ffcf40eU, 0xc50df7daa9ffb63fU,
  0xf5df9ff60b54f115U, 0x1efdb486ab2d104U, 0xdbf92f121d2f2137U, 0xa1a419dfe617cd94U,
  0xdfae100c2df4b1d2U, 0xec4d51d53606c829U, 0xdcb40e0cfaccf958U, 0xdd3ced37de22c4e3U,
  0xcfb0e92f51dbeac2U, 0x1c29281925151341U, 0x9613003230e99527U, 0xa8221ee5a02617d8U,
  0x52f8f2d39e100726U, 0x2538e731409fbc16U, 0x42e51ae5629819f6U, 0x35acdef8decd1fd9U,
  0x9f36220aead0c181U, 0xbaff42d9adf2f8bdU, 0xc021c9e21518f197U, 0xb1c295367215ed43U,
  0x451f0f38bad1c8ceU, 0x1ec96d17b720a9caU, 0x141ad818c2f918a1U, 0xf7989ae03945cd07U,
  0xc24f1b28f7ad12d1U, 0x2a20f0bc2460106U, 0x3be923fdd1d5fbb9U, 0xe7c696d26d34fa57U,
  0x802fc27f5b9f9f9U, 0xdf24bc06fdabf213U, 0xf8ebe2ef232582eaU, 0x3bf500020b020dc4U,
  0xcffdf1c6df04c7e3U, 0xec08c8fd2cc7f80aU, 0xfdbc0edc1227bbfaU, 0x1d0c0edb06d727faU,
  0x1744fc16352c05cdU, 0x1a1d00d23f1dfbf5U, 0x3ed1a11ef01b93bU, 0xfde7ecef1ed324fcU,
  0x11bdc90995d4d9a4U, 0xe414e7f3f5c2b9efU, 0xf5e9f5e50ee7be06U, 0x2ae826e310b1cff9U,
  0xe3b599c9a1e2b393U, 0xa91ab4160881c429U, 0xf7dfd211c2e7dc33U, 0xda513eefc04fef4U,
  0x2a05d30c022ddc87U, 0xd1ffddf33ae7e623U, 0xf7d5f1effffdbb04U, 0x10bcf0f60cea0ae3U,
  0xf8e9e105edf1deb5U, 0x1616c2280e2ee21fU, 0xe9db1a09fc1bbf02U, 0x2e121012cdc2718U,
  0xebccb20dfde0ee9fU, 0xdf27e6f6220cd13dU, 0xd7e9dcf50d11b1f0U, 0x26ff13fc20e02befU,
  0x2a2d0229f61c0db4U, 0xfc20d1dd0f39e50aU, 0xc6ec2af01df30723U, 0xf2b71f0b38e638e4U,
  0xe10fdc21efedf411U, 0x98e0cb0f10f918f6U, 0xcd180824c9eb09eeU, 0x29f3af07e402f7U,
  0x150a3938f2f8f6cbU, 0xc2e996ba1df7d9c1U, 0xd11e0106081af6b6U, 0xdf08f4c10f04b3eaU,
  0xdb123a1cf31fe2f2U, 0xeacddb0520f2eed1U, 0x51e181e1e0d00b6U, 0xe1fcd70317f3e829U,
  0xe1eaa8e923e7cae7U, 0xc4d6afef3b380504U, 0xb80007f90bede4fbU, 0xf6301de7e0f219d9U,
  0xe4fdbef800dcd2c1U, 0xd4e681ba0610e912U, 0x40ee017360419daU, 0xd5220bdc021102e4U,
  0x162acb20dc02e2d6U, 0xd5dfa000ef1dfceeU, 0xf6ec09fb43f7e3e3U, 0x27e70103f6fa0e1dU,
  0xcbcffff31322ec07U, 0x10334900050c1d3bU, 0x11cef7ea1c1925f0U, 0xf717292cfce60a00U,
  0xdccedfc102f23611U, 0xdb3e31e621ec0502U, 0x33f0fbfd0ef3ee16U, 0xb12141ecfdd07e0U,
  0x317b4eb020c0603U, 0xf713f80517ebdf21U, 0x32b3dec744f4fc06U, 0x3eee1b36e6fe3604U,
  0x5d92bdfe8350fd8U, 0xcdfe16d5ccd906b1U, 0x1301d51ec202bf16U, 0xf119f7d5f802c0d2U,
  0x132009f0171614bfU, 0xf30733e407e831b1U, 0x2806e00806d0efd3U, 0xd1fbe62e1f1281f8U,
  0xed44f71b0ee6ebfbU, 0xf5021fe1070d44cbU, 0xd10abfcedbfbe9e5U, 0xe808ff275022eaf0U,
  0xc284e8a60834c8f1U, 0xdffbd5f01fc9cd23U, 0xf3f32127e71ba41bU, 0x1829f0e595efe41eU,
  0xfcd18e30a4eece8U, 0xa07070426d40cf6U, 0x33112d020b19d0d9U, 0xbac0e00eb208dedcU,
  0x283801ea1ff92ffbU, 0x6e12d07071116e3U, 0xe401141326121cd7U, 0xd6f5181f00eb1dc2U,
  0xd5e0dcf820f3deebU, 0x2532fcc1fa32f367U, 0xb107eb190ed6dd1fU, 0x6f72bf6ccfc354cU,
  0x1bcad8e50a220914U, 0xd210e080e20e651U, 0xb115f30e2eedb708U, 0xc5f2de2ee1101dd9U,
  0x50fe9dfca0a0110U, 0xd4d80e0be6d31c07U, 0xfe1aeaee0dffdcf0U, 0x241b0e0de41b01e9U,
  0xe9ed2a40cb241201U, 0xd3e00be3efedd6ddU, 0x14e0e8190cebe6f0U, 0xf418e2050008cc2aU,
  0xedd9e20cc927e0fbU, 0x2114ccff0694aae5U, 0xd907f8ee19cecfdbU, 0xeebedb1b08ebc91dU,
  0x2105d1c9edca16eaU, 0x4edaef723bbf1e4U, 0xbdee7ee07c5bc1aU, 0xfecc0e0c29ebe5e1U,
  0xe706111c0729020cU, 0xeafa11f2f3d902f4U, 0x1114cef81208eefdU, 0xf226f5ebd80d1823U,
  0xe6d500e39c1ae0eaU, 0xfc181e040081fac9U, 0x1300faf3efefc4f6U, 0x7dde21ce6e0eaf1U,
  0x102d6bef3db0103U, 0xfa11fb01f9d4abedU, 0xdf403edd6dfdc26U, 0x7d10cf401d7e8f8U,
  0xfef827161ee8cb0aU, 0xe22713fc070b0d1aU, 0xeb1e0413e70f011cU, 0xfb0d06e8e4f30824U,
  0xe3f7e6ff0d05eafdU, 0xed0030f402230f16U, 0x1411fb1ced02fa19U, 0x5220502dd102013U,
  0xe512fbec0b0010edU, 0xf7093b0a2302e206U, 0x3d02e41dded10ffdU, 0x131903eadd221ef1U,
  0xf7e9de371f02eae8U, 0x4f3d8fa0409f516U, 0x2ff9ea0b35f010e9U, 0x105fff11afef50fU,
  0xf1def705f4d3ffedU, 0xf21a06eb1d000325U, 0x1115020711fb03edU, 0xf24fbe2f80509f7U,
  0xddf81407fa1df00cU, 0xe0f92c05f0ec00f8U, 0xcecfa06fecd04ebU, 0xc0bf6effc08f5f1U,
  0xfaffc50ff010cb05U, 0xeaefb30bf805fbf9U, 0xd107e9f21109080dU, 0xfbf1e8fbfef8f027U,
  0xf5f4deee00d7e100U, 0xf00e8116fc0af50eU, 0xcbf10bec0c0ffc0fU, 0xfd0c0a0808f11313U,
  0xefec22e9fd11dcf8U, 0xe3ff060708161228U, 0x100001f3fffbfc0fU, 0x362815e4d6fc1703U,
  0xedf9e8eeaa0fe4ddU, 0xf10cf00816a5e0d4U, 0xbfff0ad2100cee07U, 0xefc4f30636cbf2f4U,
  0xe50ef3f4f0d6f4e5U, 0xcdffb6051dd2ee02U, 0xd0f9f4dff721f306U, 0xe001ffe25dbd8cdU,
  0xe70305ea16fb1215U, 0xe606d0fcf70bfa19U, 0xf410fdf7f610ecfdU, 0x3925f9e30de71c0dU,
  0x12e3f83ef8d3e7ddU, 0xcaecf7decffe20daU, 0xeed120f025dcf211U, 0xc4230cf832f4f6f7U,
  0x51e001cb338d3U, 0xf71517e4c0d630ecU, 0x3cfee2dcd5cc0924U, 0x1f4efa040bf3e9e7U,
  0x2a0b021a21eb1df4U, 0xe9ad0dd4cb1e5a9bU, 0x1efabaf8e11709eeU, 0x30aec3cf5f7ba1aU,
  0x42f5202042a213f0U, 0xe526ef2c31d80b29U, 0x280c23ecee09144eU, 0xe91b091feb120fe8U,
  0x24d6dd860eee141fU, 0xd1eeae621bde034U, 0x1ae9f514e3fedf49U, 0x30fefbfb81ced4f9U,
  0xffdaefecfc50df20U, 0x21003bf32024fff6U, 0x16071617f740e703U, 0xf4e5e1f8ce04cedfU,
  0xfbfbf9e8258e0610U, 0xf922bf39f9e1dc23U, 0x15e0dcf2d30fc03fU, 0x2533feebf31bf3fcU,
  0x3c8d3caeee6e708U, 0xfb0dcce7d6f6e9e7U, 0x4110d0bc011e836U, 0x1df51bdd880b1d43U,
  0xc9faf52cf9eccef7U, 0xe2e1e7f5f126e6fbU, 0xe2f6eb40f513eaa0U, 0xd0d4ea082b243a12U,
  0xdeff826d6e6c1ecU, 0xc96e21ede15f5d2U, 0xf24eecf2ed14f8abU, 0xecc8f913f8e2c90eU,
  0xfb2c243a27bfbbacU, 0xfef5d5e8d802e9eaU, 0xfdffd9001cfa05caU, 0xddef0c0b2702fdfcU,
  0xf41f0f28ed97e4b1U, 0xe80de8cee72800faU, 0xcd20fbf4e01307efU, 0xebeafe010a04ecfaU,
  0xce7fe17dcdb14d0U, 0x3cfd405e1080795U, 0x170f03f60afb0bcfU, 0xfd8f2e40a1cc40bU,
  0x6ef1021260e4b13U, 0xde0833ece41bfbebU, 0x4305f6f72224ebf5U, 0xfe21e5d71afedacfU,
  0xfddcdc130dde3e25U, 0xc50431d5cf0af8f2U, 0x39eeef06fde2eb07U, 0x17e8cb1ef3f5cdeaU,
  0x1ece0f03d2ea0fe7U, 0xc519b50c14bfd624U, 0x5505e7e2d83cba73U, 0x293fe4fd0128430bU,
  0xd2e8cda919453024U, 0xef161d072bd8c42aU, 0x7f05f20edff4a543U, 0x2442fb348e0fe31eU,
  0xe4dcf4bdcd5ee929U, 0x19051e0220c236e7U, 0x50fafeec170e031eU, 0xdbf718219ef3f7e6U,
  0xf4f8cbd3c90814U, 0xbe8233be603331eU, 0xea0d0a04bc140cacU, 0x1d03171af7f41a0bU,
  0x3f2ce6c326b60104U, 0x19121ea0bb0c310cU, 0xfb19e71da7e11bedU, 0x212e09d7e708170fU,
  0x23df03f2ea100afaU, 0x45c009dcd00cd016U, 0xf8f9f8f3efe81adbU, 0x3023c104d210fe19U,
  0xfef8e5354dd4ebecU, 0x40d9d60cfd7f440dU, 0x95f910f2fcfbebeeU, 0xdb4af9ea09092b23U,
  0x3b10fd2462832c11U, 0x4209ad0c12494e0bU, 0xa0291bc4e0190ae9U, 0xc234f6e81d1c080eU,
  0x702f423f0be1a12U, 0x5dd9fff4021e2332U, 0xbd0c061cf73c01cfU, 0xd70f02d60e22012fU,
  0xc6d6e7d017f1e3f4U, 0xdfc9f0ec3fe215edU, 0xf2ef2013e621ed23U, 0xf814b133f1d9f7c6U,
  0x3bfa07e201ceff28U, 0x994600ff43f32402U, 0xb2d9f2b1e31bf6f2U, 0xd2feea110feb00e7U,
  0xdea9dbf2dcd5c4ebU, 0xf31dd5d00decf212U, 0xf12ad8b9351c1a16U, 0xb04371ef0e8f80aU,
  0x1aa8eef721f0038dU, 0x833f612174ed240U, 0xfee0e5cf19f1b4caU, 0x6039656b262f7feU,
  0xe1d322aae5dcd3a7U, 0x4e0d062a0fed2eedU, 0xd39226cae309ead4U, 0xe8e6a54048da0f08U,
  0x4171dfcfcc4d7bfU, 0x29bc112f1d0ef03eU, 0x91840981fb0a1c26U, 0xc3e9a82c4ec3c32aU,
  0xfdaa09f224ef1216U, 0xcbf0c43ad9022a26U, 0x9b99f9ee214ad8ebU, 0xaca9c56b1cfeb945U,
  0xefe80ff339a7d63fU, 0xfaf1f855e9fd12b9U, 0xbb2d1d13f81037d9U, 0xceed0b6b6b0e0966U,
  0x2219fce434b91415U, 0xfbf30e20ae0448f0U, 0xe2ca30c5da130beaU, 0xa3dcd2584a14083bU,
  0xeaeae3a40ce54c02U, 0x1009d71117d3e9ccU, 0xddc3c501177eed04U, 0xc9ef955fd0e5d134U,
  0x233a0ef230e7f9e9U, 0x17f4df3bb30728bfU, 0xd412ee37eb0e02c3U, 0xa6f4d17a5bc3e43bU,
  0x190b35b255c521f4U, 0x11d3e8f5c10624d8U, 0x33e20bdfdb0806dcU, 0xef55d54860bdde5eU,
  0xe2213121c9ea0e02U, 0xfbeec52b2dcf1c26U, 0xef0eed2ffb1bed22U, 0x18d3a9544ed5f5dbU,
  0xdd001df2350f2c27U, 0xbd3c9471a0426d0U, 0x3032613eb2df7e7U, 0xeb34ad1a6b17e118U,
  0x2a3848170f1c1705U, 0xee6db32f3e162baU, 0xe91a0e32f70327c0U, 0x1231e61a72d12100U,
  0xd6f9d304bdd50b21U, 0xc0098dcf32972c18U, 0x35daced9e44dd658U, 0xfbd7c7ff060520f8U,
  0xdaf908e3f4db30f9U, 0xfcf38157f6de2ae5U, 0xde0d1113ceee0836U, 0xf037bce1382423eeU,
  0x20dd20d8d9092631U, 0xf113c1122bdb1bfbU, 0x16200647e32dfafbU, 0x2b410df9fcf808f8U,
  0x409dcc9f7dcec14U, 0x2514f3d01ba7be3aU, 0xda02f116ce242944U, 0x1c6f50f140ddde6U,
  0x41e0c3c6e7072df8U, 0x300afc3021e7f9fdU, 0xf3042326f72af444U, 0x1151002f8d0f1c9U,
  0x2f0ff9c3033f0602U, 0x5ff4201f7d237d2U, 0xd7f6e318f305f613U, 0xae91cea10e30011U,
  0xf43bf0fa31ca6ea8U, 0xad339d508e7dedbU, 0x5800400e032cc61eU, 0x513e0538fcfdceedU,
  0xbce82ed3c0235cf0U, 0x5de23e5b08600baU, 0xdf618e3b00b01f4U, 0xe6fbff2fe6b5c400U,
  0x3e691a2a21e821fdU, 0xf2293be4d1bf43f1U, 0xc1021415114c0fc9U, 0x96fbe84136bb2f0cU,
  0x1f070296e9a85c13U, 0xf60edf37c8a5c707U, 0x7f36dc0b85c4c34aU, 0x5e28e2fac1c6b12cU,
  0x109ddfd3b9670230U, 0xf8f93830d19aa5d4U, 0x1011ceae2ebe217U, 0x16e3271bf7edae4dU,
  0x250c19d14ce440U, 0xe8263ffff8e0f28eU, 0xebef11efd708f7dbU, 0xccc5f8363eda2802U,
  0xf5ff30d7dbdc06efU, 0x362c34f0edee141eU, 0xb12eb17ba17f6fdU, 0x171611d90ad0db18U,
  0xe2aae7dd8f2fdc3fU, 0x37383aeef0bccc32U, 0xedf92af0dd5a0a00U, 0x12fa24cd05e6ce13U,
  0x3b0ee2efa843f02dU, 0x4053364915cabf03U, 0x2ecdfa0de12ef7ebU, 0x9fca07dd2c39c4e6U,
  0x210c0dd9d1250f1bU, 0xee0ff80804c004c7U, 0xf2f3e114da05e21eU, 0x13eae0dffee116fbU,
  0x1be2ebe7cb1bfd1aU, 0x1c0af3062bf5c2b9U, 0x1440dd1fd9f3e61dU, 0x3dcafefbc3f3dbdcU,
  0x15fbf2dcfb0939e8U, 0x1129ecf53af1ee10U, 0x2e250122042fdf0dU, 0x3de9efe2d41ef2daU,
  0x1bcd1203e7f0d4daU, 0xd805f1e00022d0fcU, 0x11141926e50fe3edU, 0x1a02e5030008130bU,
  0xf6f7dbef2fdbf8bfU, 0x1f8082c124eb727U, 0x5e07f71d04dc0cecU, 0xeb13fdf9d2f3e607U,
  0xf3f9f5351d04dee2U, 0x2a0ce8defd2c051cU, 0x49f1f81903e7da09U, 0xc1d2041ffaf01403U,
  0xed110929ff27c313U, 0xf1e0c30d0bf6160cU, 0x881513041efef000U, 0xfb1814200fdc2310U,
  0xbcd9011e1900da0cU, 0x2dfd1703f9ff0a0aU, 0x81fff31c320cfcd7U, 0xdbc6f639f0cb120fU,
  0xd0000a18f218edeeU, 0xf602ea0810fe1030U, 0x99eddae91bff29faU, 0xe8f4ff3215d107f1U,
  0x202d44655540e2fU, 0xf06f9ef391a011eU, 0x7f1054033ec0017U, 0x112fd60dd21cee17U,
  0xf6c6ebebd319da33U, 0x16c6fb10cad2e21bU, 0x290961bd2214aac3U, 0x6c7de20a4fa02a1U,
  0x5c1ea8b90299ef09U, 0x283aade2ddd6dfcfU, 0x5fdbf60c1df6bdfcU, 0xd8e7e7f3bc0fb6d2U,
  0x30ba19d8095bf829U, 0x24e90e3913de0537U, 0x15ea1b1e0630c739U, 0xe125c5f9ba4212f0U,
  0x5c2c3f109b6f0ffU, 0xd6f1dff7ec1ddfe8U, 0x30fc24edf93708f8U, 0xd313f300ebf4d4eeU,
  0x240ba910f0e6fadcU, 0xf243c324f1c3eed5U, 0xd7d5210703171d11U, 0xec9ed32af6d5e705U,
  0xde0c7438f76adbdcU, 0xcdf150d7d4ea0239U, 0xdbefeaf4e31cfd30U, 0x181be5091f202b2eU,
  0xe4fa05d5ce0bf618U, 0xd7fa5ccf2235eae4U, 0xd6ef11cdcfff2cecU, 0xd7b4f1ef26bd020aU,
  0x384342e4d0d5d9e7U, 0x235616f5fb01f9edU, 0x1a02e9e5f92142dbU, 0x198101f627f91f06U,
  0xf20c2f2cafd0013aU, 0x2431fb2c1b21ebbdU, 0x2a0becdec70008e4U, 0x3de717dae127dd08U,
  0xc5d4e8f1f31fbd0fU, 0xf920fe002efcd0ecU, 0xdec0c34cbfda8e5U, 0xf5c907c0d529e3f4U,
  0xd4e70603362e8ae8U, 0x23e90608301a0e35U, 0x262b11f64803f7f2U, 0x98122c34e01ddab3U,
  0xe7f029eadfc3eed9U, 0xe823b62b21bb98d9U, 0x3ddfbf2dbf52239U, 0x452523a79901bcdaU,
  0xf58dbff64050fe85U, 0xcf51bc30ce18927U, 0x12a2f1fb0e2db2e8U, 0xd1eb0a16ccf6b8d1U,
  0xa1c7e9ed1352c8edU, 0x3b32070c18140dfeU, 0x99dc2212311803e9U, 0xebeccc41cd2b1ee1U,
  0xa7a7d9072d30a5a9U, 0x2f38c4340943dd53U, 0xfdda05b51c18a504U, 0x2dfe0d18e303f7fbU,
  0x1fe0e5463c66eed7U, 0x36d8c2e12129df25U, 0xf3f12d1e06d6d5a6U, 0x819eca4a143b1c2fU,
  0xff3deb2200043af5U, 0xdbebc1f4c902eedfU, 0x3e2fbbf624526acU, 0xd96df42062028f9U,
  0xb7d5bdc3fcb1a784U, 0x3a38cdc529fdc860U, 0xcde322d8f6d8fcfeU, 0xd4db042ae3e71ef3U,
  0xdf97e5b22dacd899U, 0xfd3204e80c26fd5bU, 0x1a1f28170acd082aU, 0xff391911e32e3834U,
  0xc8e612d8e62dd2eeU, 0x28ff0bdf16151b37U, 0x4c0425f129c81815U, 0x141d41fe09e051f9U,
  0xe9e9deba0b8de0acU, 0xfa0ef107e79ccbc0U, 0xd7d41dbeb908d418U, 0xed94c417e8f2f7d3U,
  0xede017822d81e8d1U, 0x231ac21fe91fcc31U, 0xdbfdeae3f614ec22U, 0x18dbd3fcf2f544baU,
  0xf2f8d1c6eafde7U, 0x2a15f3f528fbd72fU, 0x20f4eaf8f3f50c35U, 0x2f06e2f60dff3b27U,
  0xf1101cd4caedf0eeU, 0xc5ee4c09c4a6f8e4U, 0x5f01cf9a5f84326U, 0xd0c01fa1726dedcU,
  0x112f5f3fcdaf6cdU, 0xbdd3365805d8faf2U, 0xea33ef0dfa230df0U, 0x213110f12f171118U,
  0xc435323e14fa4211U, 0xb3e01af7e10c16f2U, 0xea40f90203270d0fU, 0x25fac216401afd1eU,
  0x1300feff12501feU, 0xde20f14c9dd04e5U, 0x22f6cbfaeaf10fe3U, 0x29f3d0d4ffe32004U,
  0xf733f123e31f0d04U, 0xf2d808d2ebdfedf8U, 0xf0df302f6dedef6U, 0xc2bf9d624c41ed7U,
  0xd251829f41dd3f0U, 0xbddbfce1f7e81de5U, 0xa03e2e618db010eU, 0xebe4132cba280eU,
  0xfd0b0e17abf6f0e8U, 0x1ac8111f85f42081U, 0xd30ce800ceb803c8U, 0x1d17dbbf04e30400U,
  0xe319230cab13ea07U, 0xe7c0dee5c1dcd1b2U, 0xa11d116f0b412f8U, 0x4b8eeec1bbce700U,
  0xf904fe2fde1de904U, 0x10eef4fa0ef306edU, 0xfee1ead11fcb08ceU, 0x27d2eee324ee09eeU,
  0xea0b0522e4f8f91cU, 0x38c60715d1ff23c9U, 0xcb33da0a05d90598U, 0x930f3cbfbfafaf4U,
  0xd81208fb01edf9f7U, 0x31a1faedaa04fdcdU, 0xd21cd5ff12e611dbU, 0xd4efcfda1fdbe5d0U,
  0x4ce0b31d62921eeU, 0x604f3f7f60ec7e7U, 0xf112f0dc3adedefbU, 0xee3d9fefbded3ccU,
  0x913e2e1f42bf8b0U, 0x8f90b1501ac04f6U, 0x13f3ddd60000f430U, 0x31d7b522e21838d6U,
  0xfffce5c1d6eafedeU, 0xfb1b0306208bbd1aU, 0x302f21402fdf50fU, 0x26a8c01ecf00ebc0U,
  0x4ece6cdc5f100f3U, 0xfd1420c722bec6f9U, 0xeffd12b7d30fd436U, 0x25adfcf3d5bff3eaU,
  0xc280529f8340deaU, 0xe2bc00f8d7d805d6U, 0xfb26e90906e10bf8U, 0x2cf0d01cf9fe08fdU,
  0x41c0504011ef4d0U, 0x7e80f1ee6af090aU, 0xec09e5f2e702f007U, 0xfce2d50112e905ffU,
  0x6ecf80bca0df5edU, 0xfff2e112e6d1d4f5U, 0xe10fbebc2de0608U, 0x2fc9cffcf008db19U,
  0xf917263602e60301U, 0x19000012c5203cf4U, 0xeb07eff0f004fc06U, 0xe4311e190bcf0f06U,
  0xfc3a0c2cd5f911edU, 0x1f810a08be0109d6U, 0xd51cbe26b90d03bcU, 0xfcf8deed2e140405U,
  0xf4ee2836d9fd20feU, 0x1ab7fbd5b13ae1dcU, 0x1f1bf422e714f906U, 0xe302d2f311e1ca1fU,
  0xe027c0c8181733deU, 0x303f7c914ed2112U, 0xd62c4befebf5fd0aU, 0x1e2417f509ed27f9U,
  0x29e5e11e363df8d5U, 0x4040cff27250ad5U, 0x49052bea17c03abcU, 0xb41000e104e2d20fU,
  0xd612d3210ef1e3ccU, 0xffda82fd0cafef7U, 0xcac813f94ef2f0eeU, 0x9f89fb41fc05bb1fU,
  0x17da22d515ee0a13U, 0xed21d50c321c3352U, 0xe933faf2cd1e2b0aU, 0xe52a29da29063adcU,
  0x30184c2a207fe8faU, 0xf8385c1f07e6ffd2U, 0xc2ffb72fe0f7f9f3U, 0xd0ed24f81aee24e2U,
  0x1f16c3e3b6eb00beU, 0xf79e33ddec98fad5U, 0x17fb070ede56f8f2U, 0xd78ce1faf90cc98cU,
  0x1ade2bf63991fec2U, 0x1d1432143c103f6dU, 0xb4f137f91b311223U, 0xd372a325413dafeU,
  0x3aea35dcf05facfdU, 0x123d45feed13405bU, 0xf236ebf80d2009fcU, 0x14f22dcec3e2fbbU,
  0xf0ee19fecbd0ffe2U, 0xeca3d10fbecd2baU, 0xf42ec9d7e71007caU, 0xb7cae2f9fc39dbcbU,
  0x11f7de9ddbd5fcf7U, 0xf005e9dde9afef0cU, 0x33f806d7cdd39129U, 0x281af60ba6d7bd10U,
  0xc4d501c8cd4ac8deU, 0xf5e71304f6c3e1dcU, 0xf9fee2e408d6c312U, 0x3daf91eae11f8f0U,
  0xf739f03639eff309U, 0xdb13d8eb122e3d10U, 0xe6f00c0b0505061fU, 0x160af11021ed14d4U,
  0xdf8abad8f9ced70dU, 0xe2f481af04f8b8faU, 0xd9ffeaf5dd1fadeeU, 0xf6d9fc00c0d5f206U,
  0xfefcc8090032d3d6U, 0xefddc8f60af1d8feU, 0xb6f8e9faf61de606U, 0xc6c21208e9ef1706U,
  0xa1af70edf1011dcU, 0x220b0918f9f51af9U, 0xb0ee40f0f1f100aU, 0x29f50c0f0d031ceeU,
  0xf9fa08fd15da14cdU, 0xf8fbf7ede91f062fU, 0xcc060b0a13eeb9e1U, 0x15e01fe31a02360dU,
  0x2a3817fbed003adcU, 0x1d0b14edfef01d00U, 0xf819f3f417eee6d0U, 0x29edf70e2ae31d02U,
  0xf90b1322e6f71004U, 0xfaffeffd0116f9d7U, 0xf3fbee05f90906faU, 0x2815eff03e1a0e0cU,
  0xd123240addd3071eU, 0x45f91c1aa2ce06a4U, 0xedfd01f4f2b9ff96U, 0xd5f300fcccb2e902U,
  0xbbe1c1c501ace207U, 0xf0dfe107bd1cdaf8U, 0x15f5eb1b0efc0e1bU, 0x3ffdf0eed1a0e5eaU,
  0xdb81d4e6caf1c2f1U, 0x8fbd6b6bdc4b5c2U, 0xdcf21f0dfefae6e0U, 0x7adf5e0baaff6deU,
  0xfb524c06fbdb0e15U, 0xdc020f21edc353deU, 0xc21ff211d515f5f3U, 0x4d330ff103da15fdU,
  0x1824fd200a350814U, 0x13161237be06f8eaU, 0x11df2f30a1804f0U, 0x32fd09ce07fa0614U,
  0xd402c41421e124d3U, 0x403da13da010b39U, 0x320f43fc0c0e0a35U, 0x4029ebeff836e8f7U,
  0x3392315fcf50a12U, 0xdef4d71df70e08afU, 0xd42511d2f7d90123U, 0x2d2724ba3023f51cU,
  0x24f7374cda6b2720U, 0x101e35300dd5d7f9U, 0x20284a133415fd3fU, 0xdf600f2142d101fU,
  0xfb05d4dace17380dU, 0xefe81b1b11230926U, 0x59241b102ef606fbU, 0x131203e4f3220939U,
  0xb60f3febe9ac17e8U, 0x1f1e05fab0f6b7c2U, 0x35fb021dd7fde704U, 0xdf05bf26b9f3e5ccU,
  0x631f2a626e94b46U, 0xd8e93402cbede9dbU, 0x7fdac0e7fce3d2e9U, 0xd90112e9a62bf0e1U,
  0x13ddb11f17decad4U, 0xd3dd0b20fffdefeaU, 0x26e652bd002a04c2U, 0x100de180d1eccbaU,
  0xfeaf5df290d220bU, 0x202e3be3061cc1f6U, 0x57d206ed12f1b329U, 0x4cf82215d313ea3eU,
  0x2dbccbe13f4ce3fdU, 0xd1cf83745f0412fU, 0xcff62be86900d0ecU, 0xbc0bfd32f9061f02U,
  0xcf29faecf728acbaU, 0x36131b31f0e9432dU, 0x84f8e6b12000f7e4U, 0xf2edd200d410feb2U,
  0x25000761fd3ddf21U, 0xd2fdeafb1b55cda7U, 0xf7cef602d50603U, 0x21c325d54e109d4eU,
  0xed19e4141417083fU, 0xd05f10845c70209U, 0xbefc1be14201bde5U, 0x809ee391c3a12e1U,
  0xddf20d11bc05ce15U, 0xebe1f1f1b5d33cf7U, 0xc5f7d2dbad26caf3U, 0x141612ff3d21ff16U,
  0x179000001530U, 0x2477ffffef93U, 0x1406000007ebU, 0x119f00002a92U,
  0xffffdbf900000ee3U, 0xffffe0b6ffffee8bU, 0xfffff5c5000012ddU, 0x115900000941U,
  0xfffff9f7ffffff16U, 0x33700003576U, 0xffffdb10ffffff09U, 0x4999ffffd655U,
  0x2ad60000042fU, 0xffffed34ffffee2fU, 0xfffff05000000050U, 0x9b600001689U,
  0x1563ffffe911U, 0x17c4ffffefffU, 0xfffff7db000004b5U, 0x177d000013bcU,
  0xffffefc4ffffdd87U, 0xffffe30d00000b42U, 0x91400001053U, 0xffffe81c00000276U,
  0x1784ffffffc7U, 0xffffd7f6000008d5U, 0xfffff80900001dfcU, 0x1776000018eeU,
  0xffffe0f5ffffe3b3U, 0xfffff9df0000063aU, 0x9ca00001372U, 0xd6300001650U,
  0xd08c4df1b03e3d2U, 0xee121b29e6f2e4ffU, 0xef2ce3db09b7fee1U, 0xb8f703e8dad9f6e7U,
  0xe0e9e0e8cbf3cf2cU, 0x1ef8f5e035db11d1U, 0xf53319cbbbb6ee29U, 0x34d9fa1bf4f8cc39U,
  0xf9bc06f0eef8d107U, 0xbf20ec0a29dde512U, 0xaf71210f4deea1eU, 0xfed2f0b116c81b20U,
  0xfac9fff50212c221U, 0xe53217c500d01bd3U, 0xcce622cfd7aef7deU, 0x4d33feba9fd0634U,
  0x2ccbf8f4e7d4f6beU, 0x9016f53218c7e009U, 0x6160ecc01aee613U, 0xdbc6e522b1afdcf8U,
  0xbd4eaecd6ffde1cU, 0xd1110f960edf23e6U, 0xcb963eecb8a40006U, 0x24f3e8d5cc0d1dfeU,
  0xf0b51f3ae1f10cf2U, 0xf5f32b131cf00ae6U, 0xdb24d908f0ae1936U, 0xd606a4d2add6daeeU,
  0x19ecf6083feb00eeU, 0x4afcec15f608fde2U, 0xf235070b060cebedU, 0xe8cf17e9eccaed26U,
  0xe2e01c030cdfe9fbU, 0xd6ce13141efea9b8U, 0xcb00d8ea01d549f5U, 0xfbfacc0fddea04f7U,
  0xf5f5091b05050dfaU, 0x43d0d01eeffff3ddU, 0xfbdcc4e40dd4e025U, 0xf7eaebf8d316af04U,
  0xf99af230e5fff3ccU, 0x5bfe2ff14e4cb1cU, 0xd90fe6041ca7f1cdU, 0xd0d99e07ecd1fbb4U,
  0xe7f1f9ff2cf8e51eU, 0x13dbfd1c130f11e2U, 0x3f311e711c6c5f0U, 0xe9f1fa00d0ece126U,
  0xdefc16f50e071adeU, 0x17d62a16149fd1fbU, 0xe9d6dc28fdefd134U, 0xe808c3fb0a03c6e6U,
  0xe4efdb2f25a8f2f4U, 0xad804040b2f810eU, 0xf92ccee6f60da9d0U, 0x1828f9fd180df60bU,
  0xd9d3e8f4e5e812fbU, 0x13cd090af9a31afcU, 0xd6f81c0e12f316fdU, 0xece5050f2cb5fcd1U,
  0x98efe3225ddfbec4U, 0x3201d205f9fac525U, 0x1d2ad11227e8c9c0U, 0x104271dfa05e0ebU,
  0xfddcff0817fb3c22U, 0xf3d8ebf708fae7f8U, 0xf40518fbe52ce42cU, 0x21f00de40af21e98U,
  0xf21210142b19ebfaU, 0x2dfbc114e3e4f328U, 0x61cf3072600d6e2U, 0x18231ce23a0be7edU,
  0xe4fa362b2ce5100aU, 0xda1be8180014f8f9U, 0xe22b22e944e2f218U, 0xe7fbf4281eff2629U,
  0x42e1d8fe216a0651U, 0x171a031a0bed4e05U, 0xe8cb4707ebfc4858U, 0xde4b150c0bf5ea26U,
  0xe4f6ff380ae3c4d8U, 0xda14fcded53e0e1bU, 0xd1f3ea0bfd38b8baU, 0x2310140af8102654U,
  0x3c1542e8ebe21118U, 0xe9f7252ae4ba19c2U, 0xb4d625deea0cf308U, 0xe8b50de4fd09f1fbU,
  0xecf721eee8e4f8e7U, 0xdfe1daf8ca320b11U, 0xed1ee6f9e815f9e9U, 0x11292ff8d21b28e5U,
  0x4cd1e7e59015f4U, 0xf194ec06880cc6feU, 0xa1f6d5e4ec0eeac5U, 0xccf7b2dbe3531cb8U,
  0x1d0c051dfaf014e0U, 0x2634020c3cca392eU, 0xdd0ce11202fd0fe8U, 0xbe0e051e1720052fU,
  0xbc2ecb0c1523f962U, 0x3c2501314cf929f9U, 0xf3114e24e830fb26U, 0xeca28fcccd6dc6bU,
  0x3823e511fbeadbd6U, 0x473a07f7152108f9U, 0xfb10d61832d6f2cfU, 0x121721ea152ded71U,
  0xfc1c1af719f91129U, 0xbed547acfbd22c1U, 0xbd1c0530143fe808U, 0xeeae3ff0fbcf0529U,
  0x3c213b1edc322ab3U, 0x313123e0db082932U, 0xebe6e839f9c939e6U, 0x1040efc8ef2c1df8U,
  0x1f39e3dee1b31f08U, 0x270cca12e9c3c519U, 0xe409ff160313a2d6U, 0xa0dbb22243ef327U,
  0x18ed011bedef17bdU, 0x2cf3f7caecb80927U, 0x8e70bc1c5f581dcU, 0x96f03206f0da09f5U,
  0xe3ccfee00716d2fbU, 0x11b2b222e06e92bU, 0xf426ebf5d4f8d0f3U, 0x6cc0ee84fe3dd28U,
  0xe4def82cdb2bc1bdU, 0x2dfd1928ae2ade19U, 0xf0662acc10fe0805U, 0x1306dc161bfa1c1dU,
  0xe9daedde23e1d02cU, 0xeb03422e13f7f312U, 0x42f1fde2f9dab0c1U, 0xff05120932f7de2fU,
  0xf925db3ad8f6d80bU, 0x42f603becfb5f4b5U, 0xde0ca50221ef0af5U, 0x7e8b5daf1dbdd13U,
  0xe805bdd1f71304d2U, 0x28f24868fea208eeU, 0xe8e0c22524f5cdf1U, 0xeae808eafcf9931fU,
  0xc9112025c9fbd4f5U, 0xde06e05ce007ee05U, 0x2414edd0c7280afdU, 0xce0af408fbeb16d1U,
  0xf1ddf2f705290d1aU, 0xca2cd7dcb9f1e7d1U, 0xf81006c51aba2100U, 0x20dfe60f19b2f7e2U,
  0xa3cf4612a70ac315U, 0x9e02e817d0ccefffU, 0x252a3b100035f448U, 0xfe06163af40614U,
  0x16ce1bf111c21aeeU, 0xeb1de89ae8e4010dU, 0xfbebdfc745f6bac6U, 0xb9e6f2282bc70ee9U,
  0xeef8030ae8fd0c1eU, 0xd816dae40435f81cU, 0xfb23092f36143700U, 0x820d7d40edd290dU,
  0x3309efc2f6e3fdf9U, 0x23ccac910e2cc44U, 0xfde5fa29460cabe1U, 0xe00101c6154300ecU,
  0x86e93526e7c6b5bfU, 0xe749f5fc01d6c202U, 0xfeaedefcad0ad5e7U, 0xc8e86d170b0ecfd4U,
  0x2ccdbeae9cef4d5U, 0x230ef3ddcbf9dc10U, 0xb51502c5abdae3e8U, 0xffe2fbfab9c8fbeaU,
  0x9ad815e28110c5a8U, 0xdb12e6e8c8d0dd1aU, 0xf8e4d7f8d939f1ecU, 0x1a03fa062cb6f4U,
  0xcfd6ead232ac0708U, 0xcee42ef8aaf3ddc2U, 0x3d10c8f40309e3f4U, 0xf2dff3e4dbd0b1a4U,
  0xebcce8eedbf1d4e7U, 0xe1e5e2ffe41df0deU, 0xf7d10b22defbdbfcU, 0x3dd70696dcdb0417U,
  0xf9bdfbc6ecd2fa18U, 0xf912ebcefeaac82aU, 0xf603f2fb10ffe3a4U, 0xf2faf2d1ec3914d6U,
  0xec0333da171b0df6U, 0xf41ad3efc3244b47U, 0xf16f0eb1e720bacaU, 0xa51f2e2305f901d4U,
  0xec05e3ddfd020bfaU, 0xc91856fbd8e65012U, 0xb60a19cfc711ec1dU, 0xc2dde5d925110710U,
  0xe3b839ebd91cec14U, 0xd0af506ebf13d1cU, 0x60f0c23e123e1fbU, 0xf41001061104bb26U,
  0xf1f7deadf8e00103U, 0x5f72101ec09eff5U, 0xe7ea0cd9cde50029U, 0x9e2e2c911fcee47U,
  0x2f05ede804e5fdfaU, 0x1111e81109381904U, 0xff0bc0f5ebeef4eeU, 0x110d03d1cdf9f7faU,
  0x1814dde01f222b04U, 0xe9ef0ef5c7e426f9U, 0xf61dedf0dac203d9U, 0xf7ce31e4ce0a2220U,
  0xc6dedffddd1ed7f6U, 0xd9ede2fee001cfb7U, 0x95c354f0e1bea6e1U, 0xffe344e0e527c1f9U,
  0xc4d1b30a15a1f111U, 0xb8ed0810dedf22e5U, 0xfb09f2bbeadf351aU, 0xd7e2edd1dfbbe9a2U,
  0xd2051500e60af5b0U, 0xb1280e12d4f0fcd9U, 0xfce92c02e82aec1eU, 0xf7eedff3f608b637U,
  0xec2cf5ee1c88fc1dU, 0xef073210daffe704U, 0x110211fbe9de29ebU, 0xdddae916d7d706dcU,
  0xd22f0b1a0d0b00d1U, 0xf24900e2d2f0d01aU, 0x6f2eff3121c11deU, 0xfe0bf4f9eb2ef135U,
  0x122ee4e93cb4e9d1U, 0x20dbe31cd6e4d3f2U, 0xf7daf405183c03d9U, 0x2e1e407ec06f1ffU,
  0xbddb06f79a07ed05U, 0xe015dbfddfe2c7faU, 0xda8e3aefc6f2a6fcU, 0xe3ca010adef5eadbU,
  0xd5c2140afc81d0d0U, 0xbc12f0fac106ebfdU, 0x5029fbae1da09caU, 0x39392015e6c5f8dfU,
  0xa303f311f12d1210U, 0xd00f0829d6c7fbf2U, 0x23f6041ffd0b0931U, 0xd5c9fc17e60ade4eU,
  0xf2ebe5eb1ab2e6f6U, 0xffc01d1f017d20bU, 0xbf5d9f1fdf8eaf5U, 0x11da28ce10adcfdaU,
  0xd21f06f8fa0c2febU, 0xf93e2cd8ebe51c0eU, 0x71ffbf307420800U, 0xffe11542ec38c267U,
  0xebd506f115afe6fbU, 0xc2228fcefff000aU, 0xf6e91405181d180dU, 0xfceaf4e4e9e9f1edU,
  0xc8e8d3fdcfe40703U, 0xf6203b54c3d0b0acU, 0xf9020133da3b1e25U, 0xe0f00d4dfcf5def1U,
  0xf3da093d02c90b02U, 0x506c8c9c236ccebU, 0x856d0adf81ad1f2U, 0x61ebfa23b7b84efcU,
  0xfa03bbf5ed14f518U, 0xcd32e2fddf9eae0U, 0xe912fb1e10194824U, 0xff2b15f70bf3cf07U,
  0xfd081fdce8bad82dU, 0xf917deb8e403e1f9U, 0x232dfaf02af5f402U, 0x28e4e9e1d5d4ebf3U,
  0x114c5ed0a10ec2aU, 0xf908ee06dff0e6f1U, 0xca18fbed0412270bU, 0xf6fa092fe6ecc2faU,
  0xaedf1f809bebb09U, 0xff1527e2ef221116U, 0x81409022f07e500U, 0x37e33507f9e5dadfU,
  0xe52c2922f821f204U, 0xf61cd0f7aa34c000U, 0x3ef33f0ffccc04ddU, 0xfafbf6e033342014U,
  0xe754e3b42ae9f6c8U, 0x1308c428d420eb38U, 0xee2819fc341cc2f3U, 0xdad819153ae8f9deU,
  0xe4d9fd01c0fd0febU, 0x323df31d0b24120eU, 0x1515181ea6ea21c7U, 0xf11d56ea0bc626f7U,
  0xd4f7c8c645e8efe6U, 0x3c01b127d827fc2fU, 0xe63f2e0ec940062eU, 0xf418f8c9491533e3U,
  0x16b10e0005f3f402U, 0xddfdcd400260e18U, 0x3cf0d6fdbdef3cf8U, 0x141e17140c0b4019U,
  0xea0181f339120af1U, 0xf60d1f27080c33e7U, 0x1708ec0fda1a3900U, 0x6d7f101f9d8dff3U,
  0xfaeffb241817fdffU, 0xb7fce316d7261d20U, 0xff0e091e070a2709U, 0x50d911e2d115fe3eU,
  0x25f7f5b725e2030fU, 0x2d3e0b1ee509f41eU, 0xebef08e82ff011fcU, 0xd5d2263e513decd3U,
  0xffcdeed7d8d5dff2U, 0xdbeefc2dd858e300U, 0x823199bab7cd444aU, 0x37ef211bd2b4d50eU,
  0xdb4f2fcbbc9000fU, 0xeef3b00fbd972053U, 0xa6eae0d6b6bffa28U, 0xba23d8f10af7dddfU,
  0xb2fce9d4e3eeaaecU, 0xb6d8e210f4f5da16U, 0x86d2c4b0c420e4ffU, 0xdaae3df1bff8dfd5U,
  0xdbb384fe09d80920U, 0xc90d23001010cff4U, 0xd1fa97e5bac1f313U, 0x12050fea9ac4cafaU,
  0xfa60fbf012092314U, 0x1b090ff5b6383408U, 0x32fc10390afb1004U, 0x30ebe3f3f9ec2921U,
  0x28160b1af9fb052eU, 0x341f2105d7031721U, 0x8163f213d0ef6ffU, 0x1d011b042b37e50bU,
  0xe11225f291e00cb3U, 0xfa090effe7060005U, 0x9da8fd9b81209ebU, 0xcad2e603beb5e2caU,
  0xe8e5e800ee121d0cU, 0xfff9eaeef705dc48U, 0xeeece011f8ccd709U, 0xd824cef2bb0c01d3U,
  0xabdd2f11b8fbe9d0U, 0xd1a3f645fcf3e300U, 0x49693e9acdca4f4U, 0x2af80fedc2d3afbfU,
  0xc48fd506ea25e327U, 0x96b0fd07ec2f0815U, 0xcc789d8f4ce25a7U, 0x1e0e5ad3e4d9fa00U,
  0x3efae11027d92513U, 0xd2b10856ed012b1aU, 0x24e7f905ab12f31eU, 0x3bfa05b0b9f3ff11U,
  0x12d94a10e3e203e9U, 0xb80fed05fc3e2ba2U, 0x46d4f93034fdecf2U, 0x1c070715f411f3e4U,
  0x132919080b962e1dU, 0xd6391d2cd822e9dbU, 0xf8ec190ac60bee2cU, 0xad5622ba6230c8e4U,
  0xf81234bc1aefe5f3U, 0xdee6cdede02f05adU, 0xe551ad1713250bd7U, 0x28f8fcdacae213fbU,
  0x2b1f180a24c9d9f4U, 0xa3315df4c6f7082cU, 0xf5fbfd6d110cbefdU, 0xba1746bbfd33f210U,
  0xeb1c22200ab325c7U, 0x1802e51ecd0acfb6U, 0xec0fe52cc722c4b4U, 0xddafb9dd2d957daU,
  0x3524dcfc2dd1f828U, 0xe1a6cc1ee522ffa8U, 0xcf2ecc91bb1d3a30U, 0x710cee7a3cfb201U,
  0xe9c912b4e099c2fcU, 0xc7d3c6cee6db10d0U, 0x1be4faffe48cd3f8U, 0xf20ae231b3fcd6e9U,
  0x1d09b30c209e0524U, 0x81ecb607e7a2deeeU, 0xbdc54cf19cd72acaU, 0xcf1ef78c01170ac7U,
  0x33dec94a6d2afa3U, 0xed1cb0acb6c217dcU, 0xfcf0cfeaf0fbdda8U, 0x15decfd5ee0bddfdU,
  0xcdcfa31c8e70d25U, 0xb9e1de0c22fbf30dU, 0xd0181220dcbdfbf9U, 0xd3fd48bfec040725U,
  0x2b3bfcd5e195ccc9U, 0x25eec9b2f807fb40U, 0xcde2d6ebcfebca8fU, 0x4f61bd1fa47fcefU,
  0xe5d615ea1bed4139U, 0xc8bfb4c5c207f80aU, 0x4217f2b805fc1ff6U, 0x2a03b5d7bfede3e0U,
  0xb6ffe4c3f803d4f0U, 0xd9c4c2d4052df9ebU, 0x348c39121a21d800U, 0xba26d1381c28d6d5U,
  0xda03aaed02f31119U, 0xbebbbadebe2b2b16U, 0xdf07f6fed24fc228U, 0x5b08fb89e5ea07beU,
  0x9b1cd0baf9f5f8e5U, 0xd5edabe9f3f90b0eU, 0xafacced3e020ab4U, 0xe204adfd05f3b8dcU,
  0xb50d16d8b70ce238U, 0xd7211f070836351bU, 0x333ea0dad10e84dU, 0x28cf33e60836cc22U,
  0xedf7db00e5f4d919U, 0xef0e09e8decc0a36U, 0xf92d27c739d139f0U, 0xff1aeff3bf0afe42U,
  0xef2ebb8e5e302e9U, 0xea21ee052255df03U, 0xc300f6c236fd16ffU, 0xfdda1a02f61be021U,
  0x28d7f3c4193df208U, 0xf937c6ed2fc01cf3U, 0xc1ea24fdbcc40c14U, 0xf6fa0ce0fff18c17U,
  0xf8f113f2e44314deU, 0x1ffacb0c11d90611U, 0xe01fcfad6f4d30bU, 0xcf0fcf0f1f7c7c5U,
  0xbb40fcfacedb01cU, 0xdbccdeb8d0023413U, 0xca243a0e11bc1a0fU, 0xebd6ddeca1e7db3bU,
  0xef03edcde504f62eU, 0x1e2d05faf3f745ffU, 0xe3f4065c08f10f20U, 0xf1011915d40fde11U,
  0x1f324d908d814e1U, 0xf6bb0010ad48d925U, 0x97e239e929f4f30aU, 0x450bf11cc1fc3ce5U,
  0xfc190c0b25bf0de9U, 0x212102e8061f1b1dU, 0xc2901cc34070200U, 0xfb1ab34ddce62121U,
  0x5f1ef15f1f8fd14U, 0x4114d3ff48e3f249U, 0xe7da15f8efe8b510U, 0xd931fef52ce49f2fU,
  0xe4f3c3fcfdfc1b1dU, 0x4ed8ef172bf60c09U, 0xe3003fb412fbf06U, 0xdfd7dbf8bfffd5ecU,
  0xc6caf8e3ed0de02fU, 0xd21e343842f01c03U, 0xe02b32070f0a3b30U, 0x1306ef0ffbe79b3dU,
  0x617e30aee12f424U, 0xf553fc01e9bb1e08U, 0xf9e40b25fb15810fU, 0x26daf113d7d7d60eU,
  0x31d0eda8e7eff318U, 0xf5def2f7c4dafe1aU, 0xcbc738d44dfad10eU, 0x2e00eb6cddbf7f2U,
  0x32d305e1f7063c04U, 0x71ec8efecf11535U, 0x38e6dc1cc90e1b04U, 0x22d514e3fdebfd0bU,
  0xea23d1bde3d618b5U, 0x39c9dedeb61eca2cU, 0xf4f4e907c2f6bfbaU, 0xbf1309c72a451cf0U,
  0xf8c007fce61df807U, 0x190cd00bd21bf2deU, 0x17d7db1524cadfccU, 0x10cbc2eff54d0012U,
  0xe71df1e6fef3f71eU, 0xd5e6e123fb7cc633U, 0x1b2dddd3151dcafaU, 0xf6b8e4e322ead601U,
  0x16d813dc13d913f4U, 0x5ffc2e8b42bbff6U, 0x16d70141e6c4e413U, 0x29c2f6ead8ab3b2bU,
  0xd90ff2e31bfabe08U, 0x12e1df0a2633d51cU, 0xb202bc2155f22be4U, 0xde1251dbfbecde40U,
  0xf7fef931e2fdde14U, 0x1c2bfb09dd0b0be2U, 0x12c91307f2f101d3U, 0x4f441290d3c02f8U,
  0x1bffdbfd27f5fae5U, 0xf22c0434ca1309deU, 0xf5ef11ea27f01431U, 0xe00834a3e91c36e2U,
  0x4eaf202d9f21804U, 0xf9e7e800e723d4fdU, 0x907cd2228e3f9f6U, 0x470a220226f7f2e7U,
  0x10fcf5eb0333cd17U, 0xe2bd00430bc71bdfU, 0xebb81bcf29fa2239U, 0xd7f9dde69ef3e1e8U,
  0x24f61ddfe8223000U, 0xe6201c0c13fe0f39U, 0x24c9f3f714ddcb04U, 0x432ce6daf83e0006U,
  0x1303dce005f80513U, 0x1b00524924db1608U, 0xf0cb07eb5e285eefU, 0x1201f42be2d5ebd3U,
  0xe000de15eaf9c1f0U, 0x81faea3b06dddad6U, 0xd92a12f3e3173143U, 0x69f1c0bf39c07f0U,
  0x2ace517ebfafb05U, 0x9c4507a20bf60b06U, 0xf4f7f7a9009a40ecU, 0x163a381dfee2ef20U,
  0xc6d60e20c9bcc20fU, 0x83dac71cd7d2d7c2U, 0xe6e6f401e3b51e1fU, 0x4fef6f1fde5cd32U,
  0xe0411ded37bb89f1U, 0xe0b8e7daece4f5f3U, 0xc1f4cdc600c202f7U, 0x33c804c4a2fcc5ddU,
  0xc9f3f6fdeb02e2d0U, 0xd731189efcc609bbU, 0xefd3ea2dde00ebfdU, 0xedff3fc31f3c02eU,
  0x39241ee3d8e40eecU, 0x482a341defd8bce6U, 0xe9dad6fa19edf1b2U, 0x13ddf4d9a4f520d5U,
  0xd8caeff9f60a0031U, 0xccab0041dccde0e3U, 0x411cbbe1ff6fc86U, 0xf7bb0154f9b106f5U,
  0xd6e7eb2ceac4093eU, 0xfeed13fd3525f3ebU, 0xc0716f3baeed205U, 0xf81d3b0cebfed7edU,
  0x20feb5b826100b11U, 0x4a9103fd6ece4eeU, 0xc0b38cbc5173f35U, 0xf2f664a51219f523U,
  0xf5d727ffdba59340U, 0xb0f91c131e650525U, 0x707ff97cfd3b8fdU, 0x1e130fff26f1b4faU,
  0x29e1edd1f70bd91eU, 0x9e51910f3d3eef0U, 0xf12128100309fa29U, 0x1716e9150bd60635U,
  0x22f82a0e2ab6b828U, 0xde13e8df3ed10bdeU, 0xf907ebe10b8be716U, 0xf619c8e8111fe8cfU,
  0xe6e4d9192127edfdU, 0x4010fbfc308eed1U, 0xd6e70e0d240f0fd3U, 0x272a1bdd211afc32U,
  0xf90f05d735ee013aU, 0x211000e23308e80eU, 0x150a02f805f9ef1aU, 0x27e014f93a25c42dU,
  0x14cef02e013808f5U, 0x20e019f806f10418U, 0xee0a090603e7dbd1U, 0x83f10e30ef520d4U,
  0xd3fce5f91815fe20U, 0xfef0fe409ff212bU, 0xef260ecf030fe71bU, 0xfb3237fb302bedfaU,
  0xf1040af90f1c011eU, 0xe0fef50b0df21b12U, 0xdeedfdfe08fce4e2U, 0x111d1ed5ddc718e8U,
  0xbef916ef02f8fc20U, 0xdafe1ed6eb104e37U, 0xf1d14cf707ff1b06U, 0x20030e0b04e11020U,
  0x31090a20102a2708U, 0xc19f3ca01f6e6e6U, 0x26151bf11beb02b6U, 0x28fbf1e826eef450U,
  0x2ee62b06ecdadaefU, 0x2a13e80cfd03f151U, 0x19c7d214e506eefdU, 0xdb0cfcd833251508U,
  0x1008f10918280c0bU, 0x2fe80a08f749d3e3U, 0x4eaf4fa0ff40fddU, 0x1fee3013fdf21618U,
  0x2240f301af3e647U, 0x2413d93644ece025U, 0xcee605d806ef0ae1U, 0xd82116f12523f5e1U,
  0xf9180d0a0032cfe3U, 0x1619eb16f814ed0cU, 0xff101cfa1added29U, 0xd1f40fbedfaf805U,
  0x21d70e0322fef444U, 0xed2827191bf518f2U, 0xec012a0ce2e94f1aU, 0xedffea15fcf81201U,
  0x1f0cfcde0b2f3517U, 0xd4c8e2f1073f1118U, 0xf42f15f21a1836bdU, 0x3434e4cf1a0b29d6U,
  0xf0ad9ebcaffe9U, 0xdbf1cae806f6ea3fU, 0x15d91de02439b3e5U, 0xdff8daaa2b7ffeefU,
  0xf51d07e710fd17ffU, 0x40edf00d1225e005U, 0x35d02719d5e71029U, 0xf5e515161acb1224U,
  0x11112b19e9e40bf3U, 0x52059807f71ecb2aU, 0xf0f1c8d12af719e3U, 0xda08f8c8da1330c3U,
  0xf1e2fff823f7ccf2U, 0x6f20307e40ae722U, 0x141ef518f310f337U, 0x1316fa18eec708e4U,
  0xf8f20e24590011e6U, 0xf8260fe1f011df23U, 0x449f7cddfc01defU, 0x4e7121b060efb12U,
  0xfa3ff8cdfc060af2U, 0x3f4914f8e014ee03U, 0x4a01ed16f1394c92U, 0xe0e80ce00df7cdedU,
  0xc847fea6ffc5e009U, 0x3c35c6f9f4d0b5f8U, 0xeb2e2116f00808a4U, 0xc4f3bafbf632e6ceU,
  0xa98aecd0211bf08U, 0xe128a6e5ade7c39bU, 0xa9f1e30ff80db300U, 0x33050116e1d64113U,
  0xc2e6d4b6f1cb19e8U, 0x21b7f0eed781eedfU, 0xc7dd0931d12e9f2cU, 0xbaba8edadddadfdcU,
  0x460f16ca1a21f8c5U, 0xf903f801c3d92925U, 0x1308eff6d9fe13baU, 0xd4e0fb0b03f52cf2U,
  0x3b12dfebccddf73dU, 0xfa350c0ae2ee1d05U, 0x12d91cc8ca03020dU, 0xfb16d50406daba1bU,
  0xc22c4bb0d26430bU, 0xea2b15180c181053U, 0xffb513060a2036f5U, 0xbced0e3ddd082015U,
  0xfde4ba1112c05313U, 0xff4dc9fcc7e0e205U, 0xc755c9f30e2704b8U, 0xd31eccf4fe01f0d0U,
  0xbfcfc502ecc3b4deU, 0xbd01e031bed8c0cdU, 0xc707ebfcd3f3071dU, 0x2050f50ac92ed6d9U,
  0xfa14a3de27c3f21eU, 0x11d2ecf1f6f6b3e7U, 0xd33dbe0e13269cf0U, 0x11dabc97c3ce1d08U,
  0xf9fd0cf3c3efccc7U, 0xff0d0e0408cd1ac4U, 0x11d40fddcb971ebdU, 0xe9ad1ee321f3cc54U,
  0xcb49e1cec4d722f6U, 0x34ef342ce6fae8d6U, 0xeefa0ebdb1defeaU, 0x9ec35e6d2bcf514U,
  0xfaf21c43021ffcecU, 0xf0e8c306cb02fe04U, 0x1eacf312171bedecU, 0x8c30efd0bf5f3e3U,
  0x1f7b6fbebfef800U, 0xecdd04fde6ffe9faU, 0x240eeaf51d2b0410U, 0xac2c111449f50ee9U,
  0xf7d10302d50c041bU, 0x201ce502efd6dcd9U, 0x3ea01e1ad2f1ffceU, 0xd3f210cd280302faU,
  0xdae9b7cbf0e719f5U, 0xebc6f602dd20e4c0U, 0xe8fcabf6de0ce1b4U, 0xd3fe24ed13f728cfU,
  0x1af1d933042ce0c0U, 0x2b19f40be5bde8edU, 0xef0522390bf40c11U, 0x1ff4d6a5020b061dU,
  0xbbe7ffb525d5c7e0U, 0xda0ad1e7b408dbf0U, 0x2ee9fef0f5eda805U, 0xdaf8da0a290206e2U,
  0xe60d0d0dff19fc14U, 0x151f072b0718fde0U, 0xd9fbe3c50af0181dU, 0xe1edfefbf704e30cU,
  0x10240208ed05f3edU, 0x1220102b11031107U, 0xf708f7f1ece42c19U, 0x25f415f8e5f0fb0eU,
  0xf40313f8f2f3e5f9U, 0xfd18032511e3f5e5U, 0x20bddccec15fd13U, 0xf0fd2407eae9f4f9U,
  0xe9fbeb231ef9ffebU, 0xfb210519ebfbe2eeU, 0xf1203e3fb0711U, 0x19e7fa20d5f7d3f1U,
  0xf8fb070afae2f6fbU, 0xf909f124f2fcf7f0U, 0xe4f206fb0f08d220U, 0xfffd1826eadb05f7U,
  0x6e3eceaff292119U, 0x13101d06e7ed05e8U, 0xd1ec011be2e2fa0fU, 0xce1c7ecf6f5f902U,
  0xdbeeed0fe7e0bcfdU, 0xe7101e11e70bfdeeU, 0xfb1bf6e3e6fb0c32U, 0xfecceb32f4e7030dU,
  0x1219e0f600c60ef4U, 0x220f0cdff0f5f3f0U, 0xbdfe08cc14d30913U, 0x200efdfce2e2e712U,
  0xe2c805f4161ab622U, 0xd102fb0100c2cdedU, 0xbfe3e5f3fb1618f5U, 0xe2d613fae307d704U,
  0xb8caf3eff71c12ffU, 0xb404f5b5f4ff12f5U, 0xceae1cef9b0ee04U, 0xe2c3dbedd1d1dbbeU,
  0xfdd6dfdfdd16ea17U, 0xcdfdcb01dbe90cfbU, 0xd908e9e6352dd005U, 0xfc1016c0eeb212f3U,
  0xcab05d4ce03df1dU, 0x8dcdd810aeb2425U, 0xb7f410d404d7d5ffU, 0xf2d7ff9e1e1be0eaU,
  0xe5dd1a1305f11908U, 0xc720e515d8f80d2aU, 0x13ef240f0011110bU, 0xbe3d1fdebde19f2U,
  0x4dffb140ed7160fU, 0xe0807f6ebc9e905U, 0xf5ef06ee03f3d9d3U, 0xff8ee20f90ff4d5U,
  0xd9bde5e3f90df4fdU, 0x60912f7c5d3eddcU, 0xeacfdeff1b00d5e1U, 0xf7fab922f61a0902U,
  0xd2ceedee0cdffa2eU, 0xec0fe311fbebf303U, 0x20f9070812f1b9deU, 0xde802eb0ee7e5d8U,
  0xf9f3b9d3e8161308U, 0x11b8f4feeb360214U, 0x1c1d03fc08f0fdf3U, 0x46ef02e119f708d2U,
  0xca00dc0f10d3d51cU, 0xcf07051211fded2cU, 0x61efc0c171efecdU, 0xde2025072f1cf205U,
  0x527ff11eee2f70dU, 0xd9e506f6e93526ffU, 0xff38ea05f1284012U, 0xe1e708f802de1528U,
  0xfeeaf6f9e5c634c8U, 0x2113100f11d1cf37U, 0xe7ed04fbce0bb9e3U, 0x7072521ec26e6d7U,
  0xe7da37159ceddbd6U, 0xd635e9dae5d8f1f0U, 0xc497e0d2e7efe5cdU, 0xb3e03b1b45029d24U,
  0xefaabad38eea19f5U, 0xfa105cce13f730d6U, 0xe7950be79abbbb17U, 0xf9bf44f0e9ea0dc8U,
  0xfae2302c9106019dU, 0xa91e0e1ffacae3feU, 0x3cbe40f07dfbd09U, 0x26cd4313ebd3d033U,
  0x23bcc3db8ce81ac6U, 0x142531fe090b43a3U, 0x13b0db23cfe9d502U, 0xc7e4393613e139f5U,
  0xe81a2c16bf07efdbU, 0xccf91ef1f3fb15e1U, 0x2000082cd0011f18U, 0x14fcf5f9e2db0718U,
  0x34f8550ffefc22ceU, 0x60dddfe05df301eU, 0xeee212ee05f42df8U, 0xf51c34cf09f3e1d3U,
  0xcfd81856d4dfd8acU, 0xefe80bf5f9a2eadeU, 0x12aafdf9e815ebe7U, 0xe1ccc816bdb9fa31U,
  0xfecc99f7edf131efU, 0xf2ee0896fd0cf9fcU, 0xbfd7dfd1fae5bf00U, 0xcef63dd608bffcd2U,
  0xddab0ef0a7f01081U, 0xe4f6db1dbcb1bfeeU, 0x13b6f907dff6bf00U, 0xea1c10eceeb2f2f1U,
  0xcdcdccd7d7efdcf8U, 0xf8ae2ebded1dfbc5U, 0xe7f1eec104d2eeabU, 0xa0feeeeaed25dd05U,
  0xdb70a1dd70b3afdU, 0xcd0afc3bf9fa2cf9U, 0x519f23b220f00f8U, 0x2446e7f10a050b17U,
  0xffebfefafaf0300eU, 0xfcea23da1afa49feU, 0xc34132e1fae70f20U, 0x22eb380402cff63dU,
  0xf6c4e4b4ed0d35d6U, 0xbae31cee06ed1841U, 0xc0f0f04e42ccfceU, 0x1417ff22053029U,
  0x816e60d25b60c37U, 0xf5fcc8f1d60c030cU, 0xede5eab60e12b5d2U, 0xcb12f9e82e24e8e9U,
  0x1bcfe8c81f13090fU, 0xe00103ffd6340714U, 0x19390c2e0129e606U, 0x3944e3f938c10de7U,
  0x738f3fe1bd31d07U, 0x1500f0f7ed18f3fcU, 0xf929ebb40223b3b7U, 0x320eb0c3d4d0fdcU,
  0xf913bdc204cfd104U, 0xe720eff2062aebd3U, 0xf603d5d3230e4104U, 0xe1f709d1d127eaf7U,
  0x1c25eafd13080206U, 0x60ecb341dcbf004U, 0xf712f7c7e9e70228U, 0xe8d0f1fa0310e0faU,
  0xe0ec04e2d6f519beU, 0x203070ca4a12925U, 0xc8dce1cae7ef29f3U, 0xdffc5d8121fbc1f1U,
  0x2944d0e5eec30d17U, 0x5ad7050a1abff81fU, 0xa36d3f4eed8deceU, 0x1799f2c5130cf427U,
  0xc7d40e29cfc5c0eeU, 0xe71301c1acd11126U, 0xbaf2b1fde7ebccd8U, 0x7de08e6cf07c833U,
  0x52f300df02822328U, 0x46c53b0ee9fa9f1fU, 0xd4320ce0becfa106U, 0xfceefe05dcbdf8ffU,
  0x37def811d00001fcU, 0xe1d7ec4be40204c0U, 0xf314d2def18e1314U, 0xf2a8e8e607c31024U,
  0x23f5feeb03edca05U, 0x1627f6f31bd6cafdU, 0x1d0c029df4f0c8d4U, 0xfae504300ef9f62cU,
  0x3208f822df10190fU, 0xcf161bfbd5f9cfd7U, 0x4f11bdfe89d2401U, 0xaccc0c8331f4d322U,
  0xc491ffc06a9db07U, 0x30fe13112aeef4f2U, 0x1123bdc6f3cb09bfU, 0xf523ef0dd6f4dd05U,
  0x2eed6143202dce5U, 0xddfef6e408ac03c0U, 0x7f3f72c09b4eed3U, 0x9eae9ff02d7cb43U,
  0x1dd22dee10cd0cfU, 0xccde6c2d909fdf2U, 0xbaaf01eee5ad03daU, 0xfa02efd3cdbc1fc9U,
  0x60f32dedf90e18f0U, 0x1cfd1dec05bf0336U, 0xef2eea901ec1eb4U, 0xfd09dde7f1b113fbU,
  0x1edb0b23bf1c240cU, 0xde3de2d1fdec0c43U, 0xccede1e2df14c2f5U, 0xec06021520320be6U,
  0x44fbb8f1180bda28U, 0xb914f51befb0e4fdU, 0xcfe10e4e1091abeU, 0xc71ecdd2180b21e7U,
  0x112eaf7ed1b0811U, 0xe51c08dd00153816U, 0xfabf18aacdf3eb02U, 0xfee5ef0414ff1703U,
  0x25dfcbea1d41c7f6U, 0xd091eeb18dff4U, 0xf807eee127fb15cdU, 0xda4bccd102ec2cf2U,
  0xf9e907d63136dc12U, 0xe8f8ddf438e751fbU, 0xecff17f506f7ff0dU, 0xf9fd0e0603f926fbU,
  0x2e0f320f3b2f409U, 0xdde0f4f35ea604e4U, 0x12fe4b00d21ed214U, 0xe8f0c4c00ccbef1aU,
  0xe6c0383ada0a0293U, 0x1aedbdc60c1216efU, 0x11c6fb0de6ebf0ddU, 0xe124d71103ed0eb2U,
  0xe4dc3503100a25e2U, 0xc98f1d5eebe728cfU, 0x214129e4d0efdf67U, 0xf423a79bfe13c1bfU,
  0xf9970106b2c0c190U, 0x2fb8f6ccdb13c228U, 0xffe20e06ffa13dc9U, 0x2919bfe7e1060628U,
  0xe20f39f1fedc0dbfU, 0xb2bd3d4409cd27c1U, 0x2aed10d79b3fef54U, 0x30b7b95e0bf404f1U,
  0x4dd4180120bd1de3U, 0xd8fc1f0caa3bf0d5U, 0x3ce1f4f7cadf30c7U, 0xfd50c4d910eef2f6U,
  0xf51cbbf0f7f4ecdfU, 0xf0bb01b0f418f8fdU, 0xe05de80b02f901daU, 0x1e07e3e605f6d43eU,
  0xe533fd05f7c12d8fU, 0x34f8eb38faacbb3cU, 0x27c005033413c6e9U, 0xcc1adb11e32726ebU,
  0xf60ba70c03e8f3edU, 0x119ee10d1af715c8U, 0xc7f5c626ca1ff37fU, 0xf0d2c21c09c9d021U,
  0x9fd1209baabf7a2U, 0x24c9d4a6d4cf90ffU, 0xa5d336e50ae2e3abU, 0x19f3b7ef9e05fbc3U,
  0x21e9e8d50c132d00U, 0xe52006e415db04f3U, 0xd550d5bf0f6f0b1fU, 0x393ceae4431f1d0eU,
  0x2d03ef2843d80113U, 0xf419f001f9da290aU, 0xef090dd6de160222U, 0x28ffee19cfe5ce26U,
  0xcee8e7d5e1e7d0caU, 0xea1d25c30b1f12deU, 0xe922d106ca58f5efU, 0xfd10bd0a12de1705U,
  0xf9d7ff0a2ab74596U, 0x923222b06acb0b8U, 0x40e122cb0350e6e2U, 0xb8fddd36d3e1ecb9U,
  0xe903fa99dff52ff8U, 0xea09ee55ec3d3901U, 0x22e4c800c3562e21U, 0x10120e04190ce90eU,
  0x31731daedb4f7afU, 0x40e5bbdac3f702c9U, 0xe8d9f718222521d3U, 0xfb1902fbb42d07ffU,
  0xfd24b6d4fb231a25U, 0x5f41f03130b1a01U, 0xfcfdfd1d0945ffdfU, 0xfe2b19ff3832f7f5U,
  0xd70708fa49ebcdf0U, 0xe815dbe52a00480eU, 0x49e92de5194cff1dU, 0x39f1f2eafe03d2beU,
  0xf123160bd507faceU, 0xf8e9e537f45af3f1U, 0xa2c4ebb7bc9fce18U, 0x6c3fa0ec14f49bU,
  0xb4181a8e2f6c1e4U, 0xe4d9ec36f1ede1baU, 0xe3ccf8b5ed12e904U, 0x39ebd79e87eae7fcU,
  0xc52f1d18b50af0daU, 0x9cd111d90ae7fd2bU, 0xa6abe6e8eb209cc2U, 0x5e829d7fbf6e6ecU,
  0x15e6aee7e8193712U, 0xdb1ef4efead8f2fdU, 0xc1be368e16eed305U, 0x6edc7bfc80708daU,
  0xd2e7f71ab3090abfU, 0xe21acdb600e009faU, 0xf1eee3f7190daaceU, 0xde7b0cd21d21006U,
  0xf6bfd704c21d3e31U, 0xe50056dcf0b218edU, 0x20dd1cabfd13ef3aU, 0x218c81ff613cff5U,
  0x88d0eeecf8bde532U, 0xcd30fdffe327c2e5U, 0xef310fc5000a0f38U, 0x39efb1f8ff050609U,
  0xdfc2fcd6003c13f2U, 0x3947e7e01bded9ccU, 0xd9fcc5ec35240d14U, 0xd6e68a28e4ebe0ebU,
  0xd7ee0613d6c0dd2eU, 0xd705cfd703fb163dU, 0xe431ca0edd0538f4U, 0x1801f9c3ecb8d453U,
  0x1726fffc4df3d0f0U, 0xe53afdc9f8e0bc07U, 0x53a18ca37b8c5c6U, 0xecf9dad2c0f4e33fU,
  0xb6f21621c518b592U, 0xb20da8be22bc26f3U, 0xd7e3081628cdf2f6U, 0xe8c8e5e623f1f1faU,
  0xdfa7b1e8eede4b2fU, 0x920f5de03a30309U, 0xe9931af60ef6c512U, 0xc8d7b8efd40bf3f5U,
  0xc48b62e5dbd9fe29U, 0xee69d85b05f016ebU, 0x55cf04ecbdc4f5b3U, 0x21ce52ec026faf0aU,
  0x1003c4cdaef00105U, 0x1cf5e92ed80cdbffU, 0x400ea0af0c2c10f6U, 0xf4b00306fbd44048U,
  0xf5bafa95f322e84dU, 0xf703fb24cd24e6f5U, 0xa1d6536f626eebeU, 0xf91e3cd00700dd24U,
  0xa8371a9bdfbdcc06U, 0xf820fb0dbc67e2e3U, 0x1553acb64005d9b3U, 0x1c02c0c208f649f3U,
  0xfbdb06153522d2f2U, 0xedf715ad0f4a1bd4U, 0xdfec18311fa0ecebU, 0x4107d1140dcffaebU,
  0xd627fce61b01b51eU, 0xba2626d901fec9dbU, 0x42f1f1dc14c00dffU, 0xd81709ddf5ec2625U,
  0x9ea04bcdc15ecfbU, 0xfeff000af71bfc1cU, 0xf0f4fb02d617e5f9U, 0x8200ce810161ecfU,
  0xf72b07162ae41cefU, 0xe1dfe50de41ce8fcU, 0xf822e8070408f4c0U, 0xdfdf05cbf00711c4U,
  0x1ce509decdfc16d9U, 0xe2eaf10115fd1116U, 0x1dfd911131eed0fU, 0x2508f9eee70e19deU,
  0xf5060a0c070e0a03U, 0x7e2e304120aed2fU, 0xe2fad90b131ee608U, 0xe1e2fdd91712f10bU,
  0xf1eeef1805f700f3U, 0xf7d5f814230c0cf2U, 0x1e9ed001500f7e7U, 0x1602e920d2180ceaU,
  0x10f80200fc030ffaU, 0x1024000d110ef6U, 0xf8d20b101d27050dU, 0xe4010505d6f1ddebU,
  0xc0f303e0c412cf00U, 0xe20bf50f0133f2f5U, 0xbed8ef0af815c5f9U, 0xe4eb2cc900249af8U,
  0x720c7f6e312f2efU, 0xf20af0240ec633f1U, 0xd2ec03f61a153610U, 0xbc5d6b3eef1c9e9U,
  0xcee21301c3f9fae7U, 0xe8fdf1e1f70511fcU, 0xe3ecdb16e31fbce7U, 0xf01e1cf7e524ef12U,
  0xf6d90bfafcdd0fd4U, 0x1ae3062d0ed71d01U, 0xe909faf32c1bece5U, 0xfcb3e7eeef120407U,
  0xcce118cc00ee04ffU, 0xeada1f052c15eb06U, 0x710eae81017f0e1U, 0xecefcd22cbdcffffU,
  0xf7ce1206e9fa0902U, 0xe7dbf31905e1da28U, 0xeced020d0609f0ebU, 0x6f7f507e5ef02f8U,
  0xb9a6d440e00cf300U, 0x5ddc7d406fcabe8U, 0xd881e7e305ddb3c8U, 0xf9cbc70df2cbb9d6U,
  0xd4bee112de1bcf17U, 0xb0c6150021e323dcU, 0xaf8d20207c51f2dU, 0xdfe915c4efadf2e4U,
  0xdde40144e01c05fbU, 0xfeddda081df8bfdfU, 0xf4e2fd0f0010c204U, 0x1b130408e300f918U,
  0x25cb02fee1d7fa03U, 0xf1f436251ff8fae5U, 0xfa1402f9fc10e205U, 0x17ee0808cfc2c637U,
  0xe1406eb2f0a060dU, 0xf1d0f4ffcff318f3U, 0x1523c6f0171213f5U, 0x2cfb03e0cef8f71eU,
  0xf1f203e917e00a02U, 0xf1ece406f3f50130U, 0xedec0bc92726a3d9U, 0xed2efef8dff0dd0aU,
  0x11c2fece1c10e0f7U, 0x19fac0dfbcf1191eU, 0xf70dded41eead3e9U, 0x20acd270721c4U,
  0x8c9d1dfc0ea011bU, 0xe0e0f9fd09e04311U, 0xc6e71dd9e3fa251eU, 0xf225dc03ec19c31dU,
  0xe8d70d0dbcf0ddd1U, 0xfa33fae5f3e71517U, 0xe1d1dcfff6dfe9f6U, 0x3d924de0cf8fb1aU,
  0x2bedfadcfaca07d3U, 0xf1fdfb0ed8d2181cU, 0xdbe106eee0e2f2c6U, 0x1d1ef9f4ea0ebdf7U,
  0xeffcfe27e514dd1eU, 0x1df2f6f7f3fb0ff1U, 0xdfe415fa21012ee1U, 0xf7fd0ae7eefd040bU,
  0xad4fae20cd614e8U, 0x1d1106f9fa12d000U, 0xf5fb1df00bf0f90eU, 0x2500ee030c02f118U,
  0xc1e8d7ca000fe2e7U, 0x560aa6fcdb2f2320U, 0xd84f00ae25edf3e3U, 0xd12faf52b4434deU,
  0xc201a6eafcfa4113U, 0x3d4127ff709e40dU, 0xf31c0ed7e0371a03U, 0xe7ea05f8fb290c16U,
  0xcf6ea25eedbe5bbU, 0x1622091dde1118f2U, 0xdcf4ede809d7f0f4U, 0x19fcf4bdf702fa43U,
  0xfe09f1d4fcfefbe3U, 0x2516fb0ffff4d9dfU, 0x2e7e4f6f1d1e3d0U, 0xf7fee808fdf7e5fbU,
  0x40bdf12e0f0f9f4U, 0xfe00120ef116f5f7U, 0x160eed1c12ec1005U, 0xaf8ebd8ecf51c14U,
  0xac4ffeaeff9edd3U, 0x1cf8eebf0305c8f3U, 0xdce4fefe16fedbcdU, 0xe07f80008fcd5eaU,
  0xf0b222d1dce0c225U, 0xfa12a1edbd10e81fU, 0x19e62af1cf0fe1f1U, 0xc6e81bafe247f8edU,
  0xf6ddcbe4eddd07ddU, 0xd002e626ee40c40fU, 0xddddf5b1b7d8faefU, 0xe2d9c4fa13e704e8U,
  0x22fbe801f8dbf6faU, 0xd5fef202db0fb400U, 0xf02620f005fbf80fU, 0xf61ff1bfceeafe0fU,
  0xf1f30bcd17d4d6f2U, 0xddf9bef9b527e111U, 0x40b0deeebcdb5dfU, 0x23c1bdef09dcdf20U,
  0xdf0a15dd020307e3U, 0xf01f4f3ea040220U, 0xc807fdd103fc1ef7U, 0x36fb1df5fdddf1f7U,
  0xe2f5dbf01d0ffb03U, 0xff0ce9f910ecfb17U, 0xf410f623f6090afdU, 0xe5e60bf711fc0a22U,
  0xe3ff16d9fc02fcfaU, 0x274af1dc12e30c10U, 0xcf54ea0bf809c1U, 0xfc1529f92c17feecU,
  0xe01bf3ea040ce5f3U, 0x1d18120b0a112101U, 0xfedde2d7dc04dedfU, 0xc0edd2f536f915deU,
  0xf9d90d15f2d9ddcfU, 0xd1fee811eec8d8ecU, 0x8f811350decc2f6U, 0xb15081702df0ef7U,
  0x16e2e5fb03e20502U, 0x8d6fff117bdf109U, 0xd8bf1404f9d9c9ffU, 0xb51b0aec24202ee2U,
  0xfdd9db42f38123d8U, 0xc4bd1153f40acdebU, 0xda05b8f5d617f312U, 0x6430bf5d0a906f5U,
  0x28e8eb160bda47cfU, 0x23bf2cebd6fcd4deU, 0xdeffe3ffe42f0521U, 0x462a3216c2fdf6f4U,
  0xdde1cfc8f91d0dd1U, 0xe92dddd60c0e030aU, 0xacdcfbd8f2fbb3ddU, 0xf0f40d29ba05f209U,
  0xf9dbe9cceaf8e02eU, 0xcd17d5f122a04af4U, 0xec2bf8ed09f22e1bU, 0xe312dee0f6dffe1aU,
  0xccddf5edad1107c6U, 0xedfeebe5d307eb33U, 0xcaf7f60bf41dd7e1U, 0x2f2518e6e704f51bU,
  0xfffef7f1e2d035f7U, 0xfd0c192412f1191bU, 0xd7fcecddde25cde4U, 0xd4d310df2e101a04U,
  0x4e52117020f09U, 0xc51ddaecea07f20fU, 0xe4f4d41d1bf61df7U, 0x20f14cc08060958U,
  0xfd05e9ded20908fcU, 0x20060d0d10f9e117U, 0xd2f3ff07bbf90ff6U, 0xd81d0814050c13fbU,
  0x1f645def906f7f3U, 0x4615ef1d0fe50b0cU, 0xefb04d6f200b6d1U, 0xe300fa22e6f7e403U,
  0x9e301fef6eccb10U, 0xe6e1281607111df6U, 0xc1c2820d2e41118U, 0xfd083306de142f27U,
  0x505e40b06ecd9faU, 0x251b190c0df1170bU, 0xe7e4f1d2fd1be1f0U, 0xf819eed9f4213039U,
  0x1c0619eb22c7edfbU, 0x1cf30538d4facfe5U, 0xe6e4eb03f4fd0dcbU, 0xfefc05fcf3e718f8U,
  0x4d262ac9300e0e1cU, 0xf523d619d810e11bU, 0x1b1e09d91be83bdfU, 0xec19dde9321b1af6U,
  0xf81405e6350a0fecU, 0x123ed40f0fc60228U, 0xf022823da290e03U, 0xf10708fd01480afcU,
  0xc0f91309f3f5d6faU, 0x1f12072de6fcd6cbU, 0xbfec90fe5fa01faU, 0xd7e1b90bd515e9eaU,
  0xed06f3c7d4d7eff8U, 0x11f5f1f0ddfdf7cfU, 0xfa08f3db22fbccf2U, 0xd3ff1abae3c0ec06U,
  0xf40e21f80322fdfdU, 0x1513ec27dbe3110bU, 0x906ed0ceee00315U, 0xf8072419e21c10ddU,
  0xd84de5d80804fa2aU, 0x290bedfc0202f230U, 0x1a2a10ffef23d5feU, 0xcfa71ce90af6220aU,
  0xcd071ef00c1a1ef9U, 0x29fce3b1e50402efU, 0xf1ff1a3146d2eab9U, 0xdcdb160b5537f2b4U,
  0xdd22cfcfea30e35bU, 0xd7e31a36231f4e10U, 0x6b063fe7f6009d4eU, 0xab5f6f3efd1f633U,
  0x21e1f0f30beee6f4U, 0x32d2ff1be508d7f5U, 0x34fef5f1db02f327U, 0xd9e1fac6fde418f4U,
  0x26d7dcda09b0f81dU, 0xe71c2e09fbddf6a9U, 0xf7f71cd002d64f1dU, 0xf32df5dffafbf705U,
  0x16f1000a0e1fe4deU, 0xac0ecf5b1f1fd39U, 0x1ea01fd051be63bU, 0xf1f007e2e4e30c02U,
  0x1ce815daf7b016f7U, 0xf2fd20d720f0d806U, 0x40ad902facc1bf6U, 0xf210080230303f18U,
  0xe1da2ee7f3e8fce7U, 0x30dfd207f506292eU, 0x16e31adb03b802d5U, 0xdac0d00fef2410b2U,
  0xa03c6dc070afe10U, 0xbe1b0f100c40d401U, 0x6327d8c2d0bcfafbU, 0xed1f03d6fb0f1123U,
  0xffd9260707cbefe0U, 0x18fa0ed81eb0ff05U, 0x3226fbebe8dccdecU, 0xe915cbf6fad206efU,
  0x28b5001df7090eecU, 0xfad3384ce716e108U, 0xe621f432a6c530dbU, 0x2915400fcd00d533U,
  0x1f0ff4111ffd21f3U, 0xd4f31521e20c0b24U, 0x1e27e6eb3fceed42U, 0xf929dd15e81b34f4U,
  0x3dd3172636210dfaU, 0xfbd9be1ffcf13f00U, 0x403042dabd64bf7U, 0xdeffd612cf2bf3f5U,
  0x3901f3ef01e6f7edU, 0xf603feeb04281230U, 0x1dd91eeb00d8180bU, 0xf3e60adee21334dfU,
  0x2b1ee7161c36fdf3U, 0xc17eb1c052911f1U, 0x38ec09de81cd52f7U, 0x102beafee41a0b09U,
  0xffe9e6d4fbff0425U, 0x270c0318d02ccef6U, 0x2703ebfe070f1a1aU, 0xef50918020f08eaU,
  0xdc1cf6f52604ff04U, 0xe823021ae5fce410U, 0xf017cdf71d1becfeU, 0xfdffeafd07fe20efU,
  0x205c3d630280831U, 0x13e5c7fd14d707cdU, 0xb923ec0bfef7fcd0U, 0xdd1722ec030a15c8U,
  0xb810d9f50649c02eU, 0xbeadf30119e41e09U, 0xfcf4f1e528f0253eU, 0xffe0fdd52525e112U,
  0x15ff0d3afd0c1605U, 0xff1cddc3fff513f1U, 0xb6dfe30313dd94f1U, 0x1de148eafadac42dU,
  0x20b31bbfcc270909U, 0x2cdb05d902ca2c19U, 0xf5e21c0120fefa18U, 0xfdc22af4c8f1f833U,
  0x20fff5df17061903U, 0xe911ee0bc6d808f7U, 0x1304040a0dde321dU, 0x340d48f4f5020af7U,
  0x408ec0ee5d9ff23U, 0xff22dce3ee111122U, 0xfee60eff1be6ffU, 0xc82aaa041a0afcfdU,
  0xe40df0f6f517112bU, 0x2edf9e5f901be9bU, 0xcd3adb1946cff5f3U, 0xf50b0916f923d8c6U,
  0xb221f1d4dff8051aU, 0xf4ea051f17d83429U, 0xcef5fef11423184cU, 0xfef0ebe4fef3f00eU,
  0xf9e3aff6e1052114U, 0xfcdfcdd712f807f3U, 0x87ddfad636eabbd8U, 0xfdcbf8c10cffc50cU,
  0x9ee2dce5ce4cc917U, 0x16d7081746d22a1cU, 0xfbe5f40538f5e2f8U, 0xc09c25d5e2e50515U,
  0x33e323fee206450dU, 0xec2df0d6c115e709U, 0x25d80426161ae513U, 0x1102fef30a2213e6U,
  0x2b08e5fadaae1205U, 0xd918f404e9f3be3cU, 0xa08c4da3312cae5U, 0xdbffeaec081e10faU,
  0xe30d25c8e91ffde4U, 0x1bd5e829db0fc4d9U, 0x4eff9f4f9b1e0f4U, 0xd4f1fe19281ae8d2U,
  0xe026fc0d02daf6feU, 0xc2f5f23de556cdebU, 0x2c2ba9c11b20f4ccU, 0xfd0913e910ba30e9U,
  0xd1e0f4f20316fa13U, 0x3bdcdfe9e316e5d5U, 0x11f6021017d4dcf6U, 0xe7fdf8f214ec01f3U,
  0x81f4efe925e6ef29U, 0xdff9cd1f7d6ccef8U, 0x322295de170ed5ddU, 0xe7db11f10bc9e31aU,
  0x9febf1309e508fdU, 0xc806ff5afde601d5U, 0xf810f6dcdb04020aU, 0x12e6ecfceccfe412U,
  0x9d00b15e8f8e0ebU, 0x201c01dde9d0e4fdU, 0xd70205e729e81436U, 0x26fc08c6c6fef1f7U,
  0x300eece8dcdd0f5aU, 0xddeedd30e324dde3U, 0xcfd6fad3351823c5U, 0xb0d28c522210a05U,
  0xdeefafdff17231cU, 0x17dbee132fe81cdfU, 0xfbea13faf60215f2U, 0xe7eddedfc1f6d7d7U,
  0xfd270d04c006f9d2U, 0xeefeddf1f0e6f411U, 0xf5b50c013afadfb6U, 0xc22a44e626460bedU,
  0xb4f5ae05f5082d2eU, 0x20ee052230d518e1U, 0xebe9fa110a03dff4U, 0xfecaf0b811fce5d7U,
  0x29152513ceeaeafdU, 0xf12effeed1cf1f0U, 0xec25e407fbe63209U, 0x14b7bb3c1cf116fdU,
  0x2d38f1ebe9f0ffd7U, 0xcfed3dce4b7e514U, 0xe1dd10f2fc07f7f3U, 0xf62307fde326e9ebU,
  0x15edf71bd11c22fcU, 0x220f07c4f3decd08U, 0xe5ae161520eee8d0U, 0xfac8e020f5fae4c8U,
  0xdf1ddfb30e4f109U, 0xd92917f41e0a06daU, 0xe4f2d5f81c12d29fU, 0xdbe5fa040af3f7f7U,
  0xc0da19f7aeffe6d9U, 0x4eaecd80a1bd11dU, 0x21de05080eeb9beeU, 0xd1be30b30d2cebf0U,
  0xbde3ccf2290de30aU, 0xede715fe24e3e1d1U, 0x11139c040d02cbc4U, 0xd5d5f8befbf90d38U,
  0x12f40f24ddf137cbU, 0xa1beb12d4071706U, 0xb021005fada190dU, 0xfcc4b6f91d07120cU,
  0xff8db1d02ff0604U, 0x15f413fdfae4c8f3U, 0xebf0efe820e6dbc2U, 0xf0f0cc10e1fd09d1U,
  0x3c025f0dc0185527U, 0xf723d030c8ba1542U, 0x1cb01b34bce6eaf0U, 0xcacb2f08022beee2U,
  0xf2cb0bee0204fc0cU, 0xf7dbffc5f141da08U, 0xe16d0de2ee7dd81U, 0xc0dde5e90c052933U,
  0x2eda2d0819f00a40U, 0x601fd16d1def100U, 0x29100b2ae92bc11bU, 0xbd0b23c5cc26f0f8U,
  0xddee2fbc03defdfbU, 0xe5d80c02026de2e2U, 0x1b21cbf144ebcaa2U, 0xfac903c827e531feU,
  0x3fd121728f6ffe4U, 0xf8f71c1619181e3bU, 0xf3025e0ea0f24f7U, 0xb8e80b10efff1a16U,
  0xf512edfe00fe0627U, 0xfc37393108d602feU, 0x30c34f0d1c61a16U, 0x17e54110fccbc437U,
  0x5ea0af405d6d7dcU, 0xdbf704f9f3bad2f3U, 0x1a3206cf0d1c04fdU, 0xedeff8f9e8c30a27U,
  0xf4e70712ff16f3e9U, 0xdeea22f805f640d5U, 0xe5200bcdf3d11a3eU, 0xd206fef6e1f411U,
  0xe2d12502e9f1f802U, 0xf20017fc17b1dc0aU, 0xf71212fdecf0c9c9U, 0xfc2ccb0de2e016feU,
  0x1ef1db1516e92f01U, 0x1ebf7150729f6edU, 0xfc0fd4cff40fe6d9U, 0x50b1fcddef409f7U,
  0xe20807f40ceee804U, 0xdff31cf6be03081fU, 0x261afbfad5fe131eU, 0xff0f0ffebb1111eeU,
  0xdf2111511e6e110U, 0xfe21ed01ef01d410U, 0x631e6c50516fcbdU, 0x2424e2130ad3040dU,
  0x11dffcf1faee04beU, 0xe8d8150ed40418fcU, 0x1b490acbffd928daU, 0xf211f6f7f2f20230U,
  0x2fee071cd5fe32faU, 0x9f6f4e6e104e3e8U, 0xd4f503ba0808fa1aU, 0x19faf719f608fcecU,
  0x1e050f0401fcf5daU, 0xdc2cefe5d8e02902U, 0x16f0f302f7e819deU, 0x3a15fbf2f120dc48U,
  0x55030303e6e31b14U, 0x1cf20b0fd6e5caf2U, 0xe6cc0a11e512e8d4U, 0xf9ffd8bce5f8f1f1U,
  0x223406c7fc1eeb1fU, 0xf2e4f3ee061af4ffU, 0x20fde400de21e521U, 0xfc16e3f7ecfa14e3U,
  0xfbb7fa1d06e42ce4U, 0xe0dcdef4ceff0119U, 0xd0a70bf20e042b0cU, 0x1918d90de10df1e0U,
  0xa27e1e602e80efaU, 0xd9f50f22f41901fbU, 0x102ef7cbd90e0713U, 0xc2deb18f1f9080aU,
  0x27b514f4e2ff0312U, 0xd0e914fc0cdc021fU, 0xbed6f7dfebd5342aU, 0x2b0ff812ee17fb0bU,
  0x261503dffcf211f2U, 0x33cfaef1dd9040bU, 0x1835041a0dc21a07U, 0xfe9f51814e91250U,
  0x3cbc0e07cf1811e5U, 0xda553f10fe0b140bU, 0xf881482103cc3809U, 0xf338110418210505U,
  0xeb1bf8600be7d0e7U, 0xebf6f829f1fbcc29U, 0x202b0ec6ee1e3645U, 0xf5e70d26fb282ef1U,
  0x2836d53e27fbd7e4U, 0xe9453b1ea3fee2edU, 0xf726fc13ecfc2e1eU, 0xfbf3ed12b206e9fbU,
  0xc8e01a7aaaedd2fcU, 0xd8f3cab4efbca7b8U, 0xedd3021709913103U, 0xd3e1ebe329e4d836U,
  0x320cd3f806f8e100U, 0x15efd12bf1e9bf4aU, 0x8dee90bfd17cecaU, 0xfeddcdccebe9f6d9U,
  0xe5174250dee1f004U, 0xd51be6ce17d5c2abU, 0x12b8e539e0be14d9U, 0x8a5bbd137e3af2eU,
  0x50ee11c5c308f7cdU, 0x261325dff60df7fdU, 0xf590b6e318e4f7dcU, 0xbcf10fcdf5a8e7ebU,
  0xd006241dfa00d9edU, 0xfa06061cd1d0cadcU, 0xb0ff0dff4dc5ad2U, 0xc5d1391e1f1a0f04U,
  0xee1be3e8dba2251cU, 0x3306e1d99214b8fbU, 0xcf4fdce1214b5eaU, 0x33dbf525fdf70603U,
  0xe2daf212f4e5f314U, 0xb705b6fadc24e0d8U, 0x15114c2f10f64d01U, 0xc5e71de517f5bf2fU,
  0xc00fecd3ebbffcf1U, 0x1e2924eedd06c914U, 0x1ce915f326c7b4edU, 0xf8d8ccfb2af3ddf3U,
  0x270b0cd23df7f501U, 0xff1fccc2ddf31ca0U, 0xf02535dd1ec25eefU, 0xf2ead1ebfcefee19U,
  0xfdf2f79ee600cfecU, 0x64f12e2e4eefe4cU, 0xf5b343defdcc0917U, 0xdcebcdde0e1af112U,
  0x8f010ebc4fcf408U, 0xa2ab5cb060a2413U, 0xe9cd110be20c18e6U, 0xd7eb05eb3bf1f5f0U,
  0x1bdb17b5f2063415U, 0xf61620d5310cf3f8U, 0x1fc1f1e81703d5cbU, 0xd1e5eed2f5d8e034U,
  0xf0efa5f5bcd711c8U, 0x5dff4f3050edcfaU, 0xd131012233fddbebU, 0xaee4e408e6bce238U,
  0xd609f0db08aceefdU, 0x3de6fee8cece9ee7U, 0x1dae22427eae9d0U, 0xb9f9c1e217db11edU,
  0x12fc01812c29290dU, 0x1adbca14fa381502U, 0xc4f24f0ed0f4c11U, 0xceca0320ff0915feU,
  0xe40105d8f6e50712U, 0xd1450defc8cd05eeU, 0x311c1b0433e32a34U, 0xd823dbf2380cef24U,
  0x40f8d91419ef2713U, 0xc61d00dde313efe4U, 0xf81aef0a02f64101U, 0xcf30cd9c720120eU,
  0x1908ddc0130ff1f9U, 0xecf309020ad9d70dU, 0xc116ecd7e401fdf9U, 0x23f5d8ebeb30d824U,
  0x2109bfd7fb02ff03U, 0xc41ff2cccf70aeaU, 0xedf90eced0e41de3U, 0xcea2a0bd10accf7U,
  0xe8e700edd923c8fdU, 0xf903d512bbf370f3U, 0xf2f410f5e2fd45e5U, 0xb8c5c9f1e1d12213U,
  0x352204f803f00cffU, 0xe615e902e40806f8U, 0xfae60c2ae204fef5U, 0x152034ec0621f621U,
  0x1d0829f4d2fce8c3U, 0x160af60caecedb13U, 0x9402060aeef3cfb7U, 0xdec5f5f7c6ee12efU,
  0xcffbdfee321216efU, 0xc11e1cf05dfcdb3U, 0xd20624e123b619e5U, 0xeeebd215e5f3e625U,
  0xdbddd7f9de0aeaf5U, 0xe73ce7d814ad0111U, 0x6e9e3e8ffdffa2cU, 0xfb19ffe1f7c2cb2cU,
  0xe8f1d9e9ed3be6f0U, 0xea3d908f3dc2abdU, 0xcb44efc36cc781d1U, 0xd004cb1ddacedab4U,
  0xa2d8ccd60d12ee61U, 0xb8b33c1e03d4544aU, 0xeb0e340da9f9fd44U, 0x6e2ce1419fcec48U,
  0x1b001c08f72cfbc2U, 0xff3afc18d6f04ef4U, 0xffe12317bde5e509U, 0xbcc26d3f10cce0cU,
  0x15fbccd6abcaed13U, 0xf6ff50f0ecc80ef5U, 0xb7eb45f5e2cac8c0U, 0xf4ca5e14eb16f71bU,
  0x1bc71416d227fad3U, 0xe11ad1b81dddecfdU, 0xc0104970ecf13b6U, 0x31ebd31029c51ffbU,
  0x1301c605dc1dd7faU, 0xf2221614e6b622feU, 0xece0f0d9f4350e07U, 0x1300e11fbdf1e238U,
  0xd3c0e6f7ee4403e8U, 0xf236eedcf5e6fee5U, 0x10fc2bfbf7f0d4faU, 0xc8d1ef11203bfafbU,
  0xef3203e0cd09dc0cU, 0xeceef22ace01fb1bU, 0x2e2edeef825f6ddU, 0xd0e0ebfdf2b30726U,
  0x9e310ba051e15ecU, 0x1f20e4fb0405132eU, 0xf9e62c100deed20dU, 0xffe1bdfdee08151fU,
  0x9af0cf0ce9f7d33eU, 0x1ffdf0ee1110d03U, 0xfaf9e218e1e20c24U, 0xede15d20dfbe921U,
  0xf70ce5232215c1a3U, 0xeec5ed103033000aU, 0x8d23d7f123eeef1cU, 0x2e7e82ec0e23ff3U,
  0x2fdcf924ee0b4022U, 0x6dec8102ec6e406U, 0xeaec0a1fc8edbd41U, 0xe1edf71bf723cac5U,
  0x1cd02e1c8e3f6aeU, 0xbdefe41deed5ec2bU, 0xe332ed81c3fe1dd4U, 0xf81336dd35080fc9U,
  0xeef8ebe3d3d50f39U, 0xc0062dfb0618f3efU, 0x1a2033b099eb030bU, 0x1be6e034d0f5c10bU,
  0xecfefaf9c8e3d3ebU, 0xdf56e2d9f5042320U, 0xeb041b45d72bdbadU, 0xdb0151933045e1efU,
  0xd92ee4b5dabb2602U, 0x5bdc3cf1f0f0d3f6U, 0xec1fb9dcfefcd1d3U, 0x24ccd7e7ceac2603U,
  0xd13113c13e90b28U, 0xfab716073401ecd7U, 0xe8fceadc0bd7ee13U, 0xe702f4fbd606032aU,
  0x4400dc023f421e3eU, 0xadbe618612bb40cU, 0xccfce1f3e333fbf9U, 0xe9e8fff8b5e3d5fcU,
  0xd3d53f1fc7d9fdb6U, 0xc9afd21fd4fbde0cU, 0x3b252db3e6f736d9U, 0xe7c1fe0219e6eae0U,
  0xe400d20bbad33740U, 0x3f300f16520fc43cU, 0x2602d8fde9febfc0U, 0xc2ebd61e0c28d7f5U,
  0x98121b3ec9cf09e4U, 0xd50c05e1ead499b5U, 0x14a03124c5b40df0U, 0x6a82a0024f8da51U,
  0x31f3b7e8a3dde815U, 0xf42e2adbfdd9c93aU, 0x5c5e10bd5bbdccfU, 0xa13221c15f3f914U,
  0xee06042127151e10U, 0xeac42d5afbdff0d8U, 0xa0de62306f90811U, 0xe8083be7c7d61509U,
  0xc22308064404d649U, 0x13f8e9192a1eda06U, 0x1727a80118ced4f7U, 0x46f90908e5f6fe15U,
  0x18f0f4f31b26fa19U, 0xeae4d64ffee5fbedU, 0xb132de2cdef1d1aU, 0x1a11c11daba03feeU,
  0xa3cbec080302d0feU, 0xfb1bd0e61b30f8feU, 0xdbf2a5dde6f1fce9U, 0xf3e5e800f503d91eU,
  0xe2fbcc2907fb06f7U, 0xd2fd13f0e8cfe904U, 0x131c08ab491c1bU, 0xe5d5abfce69e4b5bU,
  0xde61bfb2206b7e3U, 0xf23aeeaeb4f3f7edU, 0xff23ce625ad1a1eU, 0xed0e48020afbf5f6U,
  0x71f0937f01e0bd9U, 0x2f39de36fb3e360bU, 0x6f5cc0818c11bf0U, 0xd8ea44ecec29030eU,
  0xf71416d80fed0305U, 0x8ff1f4f371a1ef1U, 0xbe0eeaeef9e3f00eU, 0x5d52bfaccf0fe3fU,
  0x7c11e0f0d0ddcccU, 0x111e902d8f1f7f1U, 0xf5f32cc8f80703d8U, 0xfc2bdb95d72bfa0dU,
  0x393c0ae228a4fe06U, 0xd3131810fdeacb02U, 0x2bde06e5deee2dfeU, 0xf216f037dcefe524U,
  0xbd506bbc317efebU, 0xb738f2ca8ddfe7e6U, 0xf0c51be7ec152b92U, 0x40c1aea08fcf42eU,
  0xd82901d503a50edbU, 0x4924b5ed81dcbf06U, 0xed3ffd025f6fa9aU, 0xcdec9cdc210045c0U,
  0xecdad8fc06e617e7U, 0x7aeed1cf9f60d0aU, 0xd414f1e92504c211U, 0xee1018ca0fec0107U,
  0xc0bcf5f40429d516U, 0xe8dcea1403121219U, 0xee2dc9ebe9c6de0fU, 0xfacf03c9fbfed12fU,
  0xf8edde0afbe8fbdbU, 0xd3e5f4fcf4fd0ae1U, 0xfd1600ebf3bb1402U, 0xdd1201e3eff21becU,
  0x1eddf1f0a6ff11eeU, 0xcb0211e3bdc31300U, 0x1e3fad912edfff1U, 0x32100a27f10fd930U,
  0x20d090aedf400d2U, 0xae200204deefe71eU, 0xced101041100e311U, 0xf7dd13f503e01322U,
  0x59bd01d9a8fe2bedU, 0xf324c3cce8be30e4U, 0xeadbf1d607ed46f5U, 0xf7498e0a01d5249dU,
  0x8120af910fddc01U, 0x9db0a1719f8e9e5U, 0xe0f6d7dff8f31622U, 0x18f5fc1306faf3ffU,
  0xce0bf0242004e119U, 0x8e6d93d292af129U, 0x1023f7f52910f6ffU, 0xdffc02fa02f80b0bU,
  0xfcf0f347fbfbcbe3U, 0xfcb2ca100afceac2U, 0xfedfe9fd25bee130U, 0x2af8e6c2e4cc0edbU,
  0xf3f3f4e80b1cf82cU, 0xccfafc002312030eU, 0x26d1451b2417ee01U, 0x1e0404e8c2fbe60eU,
  0x1707043119122bd8U, 0xdf09f1f11fe0d1f2U, 0xf7d6aacb10f3e4d4U, 0xf115e21cf4f11110U,
  0xaeae704e5e22020U, 0x24fcd7d41ee0072dU, 0xd031efd29c6ef17U, 0x6230a12e3d0d703U,
  0x15f51fddb9ebf7c2U, 0xee60d627e5e5f509U, 0x52bc11d998c8cdd2U, 0xdb152bc3241dc4e5U,
  0xdb2ecdca0fd503d0U, 0x291af110ecfb83bbU, 0x4fdeacbdcd7cc93U, 0xffbdb502d709f3fdU,
  0xd9d4d6d6d51cde09U, 0xe7f4a9e0172b19e6U, 0xc831e95912ff0210U, 0xddf2422e3c3db00U,
  0xef0cdfe8270214eaU, 0xfca2140801d104d3U, 0xd5c7f4f9f3bc033eU, 0xefe5c3d5a3fc07edU,
  0xef4040e0303f5f5U, 0xfa19e7e608ec07e3U, 0xd508df042a0f0904U, 0xc160011fc0bd83dU,
  0x28ef1ef1ed1bcb3cU, 0xfed041eece70418U, 0xe8e1e3ed06dedd02U, 0xffe10300e0d5f5e1U,
  0xe4e0e9d01cf0fc05U, 0xfe04cf1418e7f03fU, 0x7d86d09c725dc2dU, 0x9bcf33124c1d07ebU,
  0xc20eb10001004f1aU, 0xc87f3eb02acc51caU, 0x322bbbf06e413e5U, 0xbbe8d3024dfeeceaU,
  0x9d4d82ad0f7eb01U, 0xffc1aa4913fed4f1U, 0xf830fb3bccf72941U, 0x25ffcfdcf2f1e5d9U,
  0xf91bcbb71a03a2f0U, 0xdfddebcf0225fdd1U, 0xdb0f0e0a18d9f60eU, 0x291028caca0be10aU,
  0x1f003643fa27f20fU, 0xd3fbe10c02bef0e2U, 0xe0eee091dc72bfbU, 0x1909eddcf5d8be14U,
  0x16eae2c5e001f52bU, 0x20f002c227d5fe27U, 0x4e9ef08f0d7df1cU, 0x3da1ad50303b8d6U,
  0xfbe309fa13ff0d08U, 0xcd3120f01c8bde5U, 0xeec6f7f3e00829f0U, 0xedd9ccf908c1efbcU,
  0xe6fff210c0120041U, 0xf0d1efe9040c2315U, 0xd131b0ccfbf5f8d8U, 0xc41b09d4ef091ee8U,
  0x8070c1cf003f114U, 0xdefeffedd9f623f5U, 0x704f9f2cdde22e1U, 0xce0e0deb2af5fef8U,
  0xdfcedf8f4ffee0eU, 0xf51aecfffc4b2b03U, 0x19e60618f2d7f4e5U, 0x12e017f1e910f4f8U,
  0x120f1733ef10f3fbU, 0x4e2eb20e7040203U, 0x809cdfb3e1cf326U, 0x1d12c5f80bfb17f3U,
  0xbc7f6e328fc0721U, 0xdef917eb3afbe816U, 0xfe0d182508e0d207U, 0xd4d6fec9fc1ef532U,
  0x8c5000e23f0fe37U, 0xf511ff1003012316U, 0xd6021814f1fdd60bU, 0x1c19dfef06160bU,
  0x322bd125f6073004U, 0x2d3c2130de103116U, 0xfae716181e3521ebU, 0xefee14d9281edd00U,
  0xec1bff0414f62ef9U, 0xd01cd4070713fa20U, 0x91bfacf18df34c2U, 0x242c3fbf0c1100e2U,
  0xf310ffd3051512f7U, 0xe51fd315f1ea162fU, 0xede7ed16ed2a15ddU, 0xeff8c6ceff2ef1ebU,
  0xead5db0cb420da2aU, 0xd2fee3f9030cf114U, 0xe6e9352ff7dbedd5U, 0x90118ac05fc21f6U,
  0xc6dda0f2e9f2203bU, 0x20aebf30e3831e8U, 0x4f2cfca0a11cafbU, 0xf4e1ace115dfe5fcU,
  0x1f2ce5f727071c0cU, 0xd31be007375434e5U, 0xd32a05f006e3f6faU, 0xd5f242030641de17U,
  0xf3332305dc20b90bU, 0x26f30822dff2fbfaU, 0xe7e539201b0349fdU, 0x1dc0f3ee0cef2e0aU,
  0xf3ef2929e7ec11e3U, 0xbef8eed9e121d5fbU, 0xfd240f15449313c8U, 0xedd24c025f6d210U,
  0xc62217daf12ac810U, 0x190d010d30da1bf8U, 0xce421050edb0517U, 0x11f7e8abfee70e0cU,
  0x5f9f706c2d807eeU, 0xce0cdbb31e16c5deU, 0xdcbe3e7fab3c7adU, 0x2ff411bb1bee140eU,
  0xdc33f20fc706eb36U, 0x57f723f7fa48c9f5U, 0xbad5c6e4ee14c6a2U, 0xdce535d409e43834U,
  0x2ef709d345f40b25U, 0x15cf132b011c1b14U, 0x282f39cffdf7ee34U, 0xc0eddefdb1e9e705U,
  0x7fc06133703a607U, 0xf7520edf082fcc20U, 0xec2c151309e3fceeU, 0x101109131619faeaU,
  0x25c90a0f13d408ceU, 0xf60f0cf2dcf9fce5U, 0x4d7f3bee03ff28cdU, 0xfb0cd1f306d1f402U,
  0x52229e836f89a07U, 0xf6094afc1824ead7U, 0x230c19d237d3d3c8U, 0xfffe170e2ffc026dU,
  0xfbfaf9222df1fd21U, 0xf008140d001f1221U, 0x122f470af6010b3cU, 0x213bbdf4c9f34d10U,
  0x26fef0fe1917ff10U, 0x152add06dbef07f3U, 0xf422d008fe061301U, 0xe5280ada3b2439f7U,
  0xe6ef120c2cfcbc38U, 0xe7ffe822dc58e7edU, 0x108eea0e0061e11U, 0xe93a26f7c405fd33U,
  0xe12dd9f336ecd404U, 0xf324df2b1209faf0U, 0xe821f6d9bb05e4feU, 0x1cd0df1fb100de5U,
  0xd5f33f0ff3d8cbf0U, 0xe3dc1f03fefeda1eU, 0x4c1214cbb111e229U, 0xf1f8090be7011ad0U,
  0x3b1c00351de51d07U, 0xf81ce613fe1becf2U, 0xe40cf3cfc8fc1b05U, 0xedf01639f4dae01aU,
  0xe5f3242c0fef10a6U, 0xecee09ceeaff131cU, 0xe9ef05f30209deebU, 0x8f12507e5ebfa14U,
  0xfd1e4eb0de80afbU, 0x29f6ea0ee1edff12U, 0xf2d3f42cfc08cbe4U, 0xe21acd1847f70be9U,
  0xe3f9c5e8c2f3edd8U, 0xf8ece355d80802d9U, 0x4fb3cf1ade6f929U, 0xe233bd20feff50dU,
  0xee02dce220f92c11U, 0xab6e4faccdad903U, 0x19fcddb8f504cacaU, 0x16e3f602d8f405d3U,
  0xecf523f3f1e3f5e0U, 0xf70af21ebc35e9e8U, 0x402dfe8bddc389bU, 0xe4fa46d7310f25ebU,
  0xf13cc7de1710232dU, 0x18ebb5fff7b9f1ecU, 0xf0f1e4bbbb12afc7U, 0xf00ee20bd01d12f8U,
  0xdec0d104f4dae2c3U, 0xc1fed1ce2fe7f1e6U, 0xe13b2010151ae3e2U, 0xcfcffe127f2f738U,
  0xd42cf30113e615ffU, 0x3edbd1f6ece8d7d4U, 0xeae10c0ad7ec97e4U, 0xcafcc2f90d13dfd9U,
  0x13d50ae1eccb03f5U, 0xe9f4ed0bc628132eU, 0x1ecde8f58f06f5e2U, 0x81d01d1f907ffd8U,
  0x1b2ae52509e5f6e4U, 0xe8efde14ce14a221U, 0x30f81e9f23db889U, 0xf0ae413fb27dcc2U,
  0xe9e420cde6100723U, 0xe8e7fbccdbdfd32eU, 0xc21ade0721efcaU, 0x20f1ff6f3ea31c1U,
  0xeed5faebfd291e36U, 0xf229eefff1f7e4c8U, 0xe3b9a3cce23abed6U, 0x97e528eae30306f2U,
  0xbecfe01f9c3facfU, 0xffe3d1e6fa47ba0eU, 0x71523100cea3909U, 0x2728f8d304040af5U,
  0xed02f2e7120ce114U, 0xfe24edecfc22e8eaU, 0xd20dea34db33d9d6U, 0xc120f9f214150406U,
  0xf114abed3fe8ff13U, 0x5f60317fc1aecf9U, 0x8fb0f0724f72025U, 0xf31a29fc2cf10afcU,
  0xf4f20f05feebe20bU, 0xaefc1f3ebe7f9f1U, 0xeeff20cee1417U, 0xfdf029d6e70203d5U,
  0x2a0014fdc4fb04cfU, 0xe82de018e1dbdecaU, 0x44010dcfc0f433ddU, 0xdb0412e4f4f0f6ddU,
  0x1002e9e7decbe9dfU, 0x2827fccfaee7f5f6U, 0xe4b30203f8f720ecU, 0x9f9e735f805faecU,
  0x1af1cc0311c02521U, 0xb227e5f0f9fbeae0U, 0xeef10f0bd3d6f41fU, 0x11e00d0433d7074dU,
  0xfb3046c5dbe60ad2U, 0x1eebf7e7dc34e1ccU, 0x20f2e316ebe4f0dfU, 0x2e00efe93109eb24U,
  0xeae1fafc0f040adcU, 0xe416d93acef6dfcfU, 0xeee0e60ee6bafd2cU, 0xf7fa2fd002dbe8faU,
  0xe5f0f106d2c6d6ffU, 0x270bd4c0ddf3ce00U, 0x15faf1f0fafde9f9U, 0xec09f7def2fa09dfU,
