/**
  ******************************************************************************
  * @file    network_data_params.c
  * @author  AST Embedded Analytics Research Platform
  * @date    2025-06-11T10:47:07+0800
  * @brief   AI Tool Automatic Code Generator for Embedded NN computing
  ******************************************************************************
  * Copyright (c) 2025 STMicroelectronics.
  * All rights reserved.
  *
  * This software is licensed under terms that can be found in the LICENSE file
  * in the root directory of this software component.
  * If no LICENSE file comes with this software, it is provided AS-IS.
  ******************************************************************************
  */

#include "network_data_params.h"


/**  Activations Section  ****************************************************/
ai_handle g_network_activations_table[1 + 2] = {
  AI_HANDLE_PTR(AI_MAGIC_MARKER),
  AI_HANDLE_PTR(NULL),
  AI_HANDLE_PTR(AI_MAGIC_MARKER),
};




/**  Weights Section  ********************************************************/
AI_ALIGNED(32)
const ai_u64 s_network_weights_array_u64[45338] = {
  0xbaa2bda069b4aebfU, 0xe1ac9fb28e41c27fU, 0xb8c57349b1a2baadU, 0xbf9b6d45a4857622U,
  0x3bf74bef6075b5eaU, 0x68096cd4e7626c44U, 0x97f796274f8e780U, 0xf4175b5f29455f0dU,
  0xe8bbeafb4528f1f2U, 0xd5ebe53f1136f6c3U, 0xe5d301f1140ceee9U, 0xf7c447320fd905e7U,
  0x11e2fd7fbffbbee1U, 0x12d1280f2ccb16c1U, 0xe3dafdf750370991U, 0x94fa03fc9b00d8bdU,
  0xe4577fb4133ebe18U, 0x53171805d19be36cU, 0x222f1955c5d7af49U, 0xc86a83d923361b32U,
  0xf4f9e5e2101b1a1aU, 0xf66380e76d3afd2dU, 0x374b352ed49c0645U, 0x3e60f657311e08f8U,
  0xb6e9d9dfadd2cab1U, 0xbc2cb33fec9b3dfU, 0xa7a4b8fbe9cccddfU, 0xb60fc4b9bfdbe8b8U,
  0xbdde77a6b3c0fccfU, 0xdd43b2a329fa110cU, 0xfaeac841a6ecfef4U, 0xccac5d3c608ef17U,
  0xb058d9c9d3d5ddf6U, 0xd1b902b8caf70afbU, 0xd0e7c9d9b4b9c845U, 0xb9c3e8c6baada6deU,
  0xf7d800122fad072fU, 0x25b0c611d87f3914U, 0x503df21eaaff0ce5U, 0x45b3b5f90cffed02U,
  0x265b3763a1674e22U, 0x45422d5c4a1ef545U, 0xd5c6433a43326b45U, 0x435d520dd93b5e1aU,
  0x4331762b3b5b3b67U, 0x405d1cbc6568614eU, 0x5b59505c80455a53U, 0x4fec485e0c5d5f6eU,
  0x19686b655d685856U, 0x2b1e61443c545b42U, 0x3b3f4545c1eb3168U, 0xea3a495c211fd213U,
  0x575e5c4e66085f58U, 0x5af4fb6e507f7033U, 0x5d76525407596b35U, 0x70f5cf335a755859U,
  0xfc0e653630604053U, 0xca99a1b529451c4bU, 0x8199ddebe033d098U, 0x4f30034b530bf745U,
  0x1ed02fae4080614U, 0xbcde811820f12c38U, 0x7f3cf91ea8e9fb9bU, 0xf0eeccc1513f317dU,
  0xc5c7e60e03e230fcU, 0xdadbc3e7d5d1d1caU, 0xa8f798e5aacccac0U, 0x85bfcd148fcb81cbU,
  0x9ecebbc4a50c260aU, 0xf292a33e102eac6U, 0x1e3807e8e39f3b1dU, 0x33f8fee9810b09d1U,
  0x212f8be0d15ae1dU, 0x65422d351bd74731U, 0xffab5c9accafed0U, 0xa1810a868514b5f4U,
  0x1701931817b9c122U, 0x26e6162e04f9f681U, 0x1e1b331f08fa9e10U, 0xf121d10402d4183aU,
  0x20fda0e5ffc103b8U, 0x60a5d2cebfd6ec30U, 0xd1f7f12221475a7fU, 0xeaf9b2e3fefb08feU,
  0x281daf7d6f5fbc7U, 0xa4db00e903fe88d6U, 0xda9687c981acdbfbU, 0x4ce41c20cdda8684U,
  0xd4f5021b1e371220U, 0xd7b0deebf7e9f322U, 0x81f0f0bcf9d5c8fdU, 0xfc0addf6ece0dba8U,
  0x19f0d5c9b2f2b199U, 0xefdc285f081feb19U, 0x4a767f2b7b3d9cc7U, 0x2be6ffefa9a4f114U,
  0xd5cfaaffc5c9c40fU, 0xc4c1e33302ead497U, 0x6463f6d9e3ddbcaeU, 0xd1423e1d5061447fU,
  0xbdc56fb7e87ffa9cU, 0xe445f6dc76260cd1U, 0x804fa5327e69cb2U, 0xb8b4c2b0b9a1c3d8U,
  0x14e68aadb0333d31U, 0x24e8c4ba776c39feU, 0xc3e1fe217f672745U, 0xbc0720e4ed1ced0aU,
  0x520e61107e81381U, 0xbdc0cf8e00a9bb0U, 0xa3ad2e31feb112cU, 0x3781b434c6db2defU,
  0xc5ef46c8f631d501U, 0xb8d81e2d33fc1c31U, 0xe9594a5a1d01f794U, 0x6c60739881a8c09dU,
  0xdc81ecc9f1183613U, 0xe99d8aa1c8b4a3ecU, 0xec251707512afa2eU, 0x504d1c7539114838U,
  0x8bdd5e6b3ecce07U, 0xbc01f19ffcbcc9dfU, 0x36ffe617e13c2919U, 0x8c15129f667f711cU,
  0x15fb889881d5f2cfU, 0xf5fe9aa9f09db8c0U, 0x18a9e4c085e9ea0eU, 0xd22312f4bfa195e4U,
  0x2aba6df97959cb1U, 0xbd8dcf9eee1c0ab2U, 0xf7f701fc0505b381U, 0x1faebfef681ada3U,
  0x1318fa10e0f7e2f2U, 0x32e62c1803dc2e0fU, 0xaf4235fce729e0f5U, 0x384fe41c16c42bf6U,
  0x1fd347c3813ddf9cU, 0xfad6fedaa0ffe8bcU, 0xaff7d981f3e7a811U, 0x4e69804edb306e2U,
  0xed25c281101201d7U, 0xf3f1c821edbd5496U, 0xeea4a8b4f4f91186U, 0xcabff493ac0209b1U,
  0xe806abcc49f6e738U, 0x6a04d97f3c0a5f1fU, 0xe7e9300bea1fe6b3U, 0xf32808d9f7b981ecU,
  0x53401fffe2c70809U, 0x191225fbfbf60e0cU, 0xe4cec30ddb12fc27U, 0xba1eea381fe5f0caU,
  0xa2aefcc90ec30f88U, 0xc2e3b58181b8ec01U, 0x1e43c81d9c13b22U, 0x1d97d8bae311c206U,
  0x14bb330bae3ccad7U, 0x306819ff04c6cf81U, 0x52fdcd03b5da564fU, 0x85a7ee90427f4e1aU,
  0x306e0c203f8c8e3U, 0xa881404e45402b28U, 0xd327351ad3c99ad1U, 0x360b2ee4c9b144faU,
  0x1b6c000003e5U, 0xffffccfcffffd112U, 0x761000017b5U, 0xffffd613000011ecU,
  0x27d00000220U, 0x457ffffea0eU, 0xffffeb3800000753U, 0x34e00001a22U,
  0x124400002bbeU, 0xffffcd3d00001696U, 0xffffdba9ffffea60U, 0x3fc0000047aU,
  0xfffff6b30000017aU, 0x5b6000000c8U, 0xffffc1deffffbfa0U, 0xb3e000010f4U,
  0xd3beb15d9dc30feU, 0xdd03e52e2be5c4e0U, 0xceeddbb9ff220aadU, 0x11f508ec36521339U,
  0xfa30c501d9e5dfeeU, 0xecccf3f618e0e11aU, 0xe006edc3b0fe0af5U, 0xc4d40eed060902fdU,
  0xeedbc0d9e7efde16U, 0xeddbe29829d2c40aU, 0xf6e6dec5f3cf0232U, 0xdaf611ee81a8ededU,
  0xa44f41feef928f3U, 0x16f9d91a24f016ebU, 0x10e04dcfc1c0b9eU, 0xe31050345551219U,
  0x917f2fdf60c18eeU, 0x15b60de10ae7131bU, 0xee0b14e2fa131c16U, 0x9405020ce9eb14d9U,
  0x1ac7eceaea02fdfcU, 0x160514cdffe41512U, 0xe71f02de2efc0e47U, 0xc11d09faa98c11d6U,
  0xfb2f3f30da1303f6U, 0xe4e7d7ea24d1c9ebU, 0xded9dbeed7eb18a4U, 0x2d1210f0113fe71dU,
  0xe4fd180ae82402e7U, 0xe6cb0bbf0ee2da03U, 0xcee6fce4fef524f4U, 0xe4e6f611cdddeee2U,
  0x20040000f105abe4U, 0xdb29db07ebf01eU, 0xcf15d4e8180d1f35U, 0xccdd00e9a98cdafeU,
  0xf4b9eef2ecfcf42bU, 0x1517cdf0eb12f80bU, 0xf9e500fb24f5ee20U, 0xb6cefffcf8df05d5U,
  0x49e116dff4100308U, 0x15f9f90cf11603ebU, 0x291e0e06f5161719U, 0xd08e405d7d609d5U,
  0xef2a2106ec0bf6eaU, 0xddf8e741f0ff00dcU, 0xd80ef8e9063300daU, 0xef5fa1415fbfccfU,
  0xda0101f6ee0e05dcU, 0xc06d30b11162106U, 0xf30f0610fd2e0f0aU, 0xe9fbf524120018deU,
  0x1f306e8f5e3e7f8U, 0x36fbdb12da141428U, 0x3d031e0803f54722U, 0x2e14df27bdd10bf0U,
  0xa1513cdd6e517c1U, 0x26f9d5cd03ecf4fbU, 0x2edffcf3e0f7cfceU, 0x1f38f9231529e9ebU,
  0x6080801fcc528c7U, 0xece3c3d1f8e310d7U, 0x1f0d01de5ebbafeU, 0x2a3406101012ce09U,
  0xf738bd0b01eaf381U, 0xe6abe01709ff0616U, 0xc611e7221f313bfbU, 0x7fbf715c816dd02U,
  0xfc0bf9cff3ccd9dcU, 0xf1b7b110f3e7f726U, 0xe3e1e40abde909f8U, 0x2cfa070adefbda24U,
  0xdfc201090ff32c3aU, 0x2ee01dd0f1df2e8U, 0x4e9f5edfde001feU, 0xc7e614f909d52ccbU,
  0x242de73e18e6120bU, 0xeea5facdf830f9e2U, 0xe71f04edf5bc09d8U, 0x1cf512f4cc093000U,
  0x2ee7fcde28c6e6dfU, 0xdee713a91d1beee6U, 0xedafdff6bceddde5U, 0x2b3417faf3e12023U,
  0x11e2f50d1cd31122U, 0xe4d0ffe7e82df1f3U, 0xf5d7fae508c9eadbU, 0xd6ad05fddfed2f02U,
  0x32e93d2409f4b7U, 0xf3a6e4a4e532dfedU, 0xcd0e09ee0b81caa2U, 0x7ab0dfa242d330bU,
  0x230ee41b31e6c5cdU, 0xeed7e8b2e123c4eeU, 0xcc5e6ead5b9a2c2U, 0x31a13fdf80f2332U,
  0x1b09fa2217e51120U, 0xc2d40917d615e3e6U, 0xd705e5dc090ef9b9U, 0xc8df0602fd062217U,
  0x254be44b292129ebU, 0xdacdf4f7e322e6fbU, 0xf31d05f41dddcbabU, 0xefe16fd2e26162dU,
  0x3c14e8212f320102U, 0xe6f001f0e518d9deU, 0x29dae5ece6f3c1c4U, 0x1f0d03e90d1e053dU,
  0xb5b9dbb310309ffbU, 0x172cfa07eef5fa0fU, 0xa210613af09f031U, 0xeecff4f414d2e1f9U,
  0xf9f6d4d608eff9ecU, 0xeffe180cf7eeeeefU, 0xf71d0ffced34d422U, 0x81effcf4fde6edc9U,
  0x4123dd8d8b932feU, 0xc9bd0a2313cdcae3U, 0x20e9f6fecc2e09eeU, 0xda53faf6c401d0c9U,
  0x2babc0a0300c4e8U, 0xea25f5c6000bead6U, 0xf5ab11fe09f30c26U, 0xc9cffbe817c8f2d0U,
  0x2fc7243103ce435fU, 0xd7d11cc20004a5ebU, 0xce111b014cdeddecU, 0xdd10fff4cbd4fee0U,
  0x22011e0bd9c2432fU, 0xd4e8e0f8eef6a0f0U, 0xe8cef30ec0d6d0dcU, 0x2ffdfeedbb05e83eU,
  0xb29b245fcafe7f1U, 0x2dfebc9e1a00fcecU, 0x1d28250ced991b08U, 0x1e6100906c9080aU,
  0x154a1652f3fef40aU, 0x1d02fee8c81c2911U, 0xed4215f504be48c7U, 0x2a050b03e2e6f64aU,
  0xe3eb05cfe5e7d6b2U, 0xa4e1dfed2fc27f1U, 0xeddd04ebc0fda3afU, 0x4243f40d3d09e86dU,
  0xd60de40df2cb00edU, 0xe60f1d1211fafef6U, 0xf40c2412d714cb1fU, 0xc3d3f4340f120f1eU,
  0xe7d5c1bafec8320bU, 0x9defd05ec0607bdU, 0xdb1714ffb019dde9U, 0xf9e3023acfe502dfU,
  0xb4fb00c60cda01f3U, 0xf70013fcf7e113U, 0x1ded0bfc07001118U, 0xbedf52bc9bcf1e1U,
  0xbb3f157ffcfd030aU, 0x3fff7ec37f11a02U, 0xd0f2230d01d846cfU, 0xd7ec0324f20f1020U,
  0x18dc01db032011c7U, 0x2760f4dfec0505bbU, 0xe1ef180496ffe3e3U, 0x4e4608291afefb28U,
  0x9d04c01e01beb9f0U, 0xf0fc13d315e31037U, 0xd5061d09f6ee4c01U, 0xc5e50c3dfde5fccaU,
  0xac39d07be90a1d16U, 0xd70cfbf909d113ffU, 0x143b2213d60230e2U, 0xd0ef031fd9010720U,
  0xebd4dfb1f8fde3fbU, 0x2347fe09ddf00ee5U, 0xf1d31c0690c913c9U, 0x5357012424f3fe25U,
  0xea06ea1bf9d31122U, 0xf1ecfcbc21e6f621U, 0xfbee1602d5e82417U, 0xd1faf62bdae0e4c4U,
  0xf506090b01da060aU, 0x31123a1461fade08U, 0x433f0eff8fc3213U, 0x17ed1cfc0325ec0cU,
  0x23fbeef2f1dbce1bU, 0xc030b1923dad508U, 0xf349f7ea0b111716U, 0xe68d1ae70501ea02U,
  0x3f10b0bf4cbe728U, 0xf708e93414f1cc06U, 0xd608ddf7fe1e17faU, 0xe0bc1aee08f6e007U,
  0x14313804ea091ef2U, 0x53092a2135e9d30fU, 0x1d14e0ede60f2afeU, 0x15121bff143ae9f3U,
  0xc104300f136f60dU, 0xfdff181b36ddbd1aU, 0xa33e0deff000bfeU, 0xe2fc14f91e20ef06U,
  0xfe19191cf804f90cU, 0xfdeff10f29dca509U, 0xc0ebe3e1bd0a19c2U, 0xaae211031717e60fU,
  0x3fb21caf5dfe3d8U, 0xde5efe037cf0602U, 0xa2b0e4dde3b7f6U, 0xe8e31ded0d39ca22U,
  0x4ea18d8f2d9eed6U, 0xeeaadbda32c40f1dU, 0xe5fbb9ebd0e7c0c3U, 0xddfe20eae626c521U,
  0x4f4230cf1f307feU, 0xd28fc6cf40c31507U, 0xb3ccaceeb101ed81U, 0xb2d813e9c627ce24U,
  0x254e0b03f006ff12U, 0xecfac435da2ef5eaU, 0xfd27a5f2e02b18f9U, 0x2907001706e7e555U,
  0x2852183ef73335fdU, 0xe642f024ce111aebU, 0xd15be00502f407b6U, 0x6f4af71251040554U,
  0xecc2f412e3dc1e22U, 0xbd26e9e2faff0cd9U, 0xd7ae8609cbacade1U, 0x1c02fefd08f3e261U,
  0xf51ceec2e0abb8f5U, 0x1bfbc235e2030203U, 0x3528bf090d7f2e35U, 0xc8a70528f0ade531U,
  0xf86c0618070edacbU, 0x592af93baf1c0bf7U, 0x154091d083728e9U, 0x1afce5221bb61e00U,
  0xe1cf6d9ddb98cd8U, 0xec44df21eee605f8U, 0xd690bf0cc922cbdeU, 0xfedf06151cd5d923U,
  0xdab8d1bbf8dbf6e6U, 0xb0fdee424f8dc00U, 0xf0ceb8fe0f1c0619U, 0xbeec0f23caa70300U,
  0xebe5d6eff6f920ebU, 0x3e27fcfcfb06cc03U, 0x1f2bf308081a201bU, 0xfc02ff3201af2cceU,
  0xf7d4c8cde3b3b5d1U, 0xc750ba100cf6b2e9U, 0xd791a0fafdf9cce4U, 0xace8ff1505c9edebU,
  0xfff0f90dfd001f3fU, 0xd709fd06eb070130U, 0xfc140ce8f70c2325U, 0x1630fd02f5d618faU,
  0xe2c1e5d50d1603ffU, 0x4ffeb02e7080c3cU, 0xef1c2afcfa101231U, 0xf30df0faddc224d5U,
  0x8bbddc60615fc19U, 0x2228e607f1f30527U, 0x18271cfe0c1e3253U, 0x828fcf0c2aa1ebfU,
  0xfff93a07082825d0U, 0xdcf8d8f8ec160bffU, 0xa7e41aed1224e4daU, 0xe20ff80a1cf420fcU,
  0x16f020e1092b2cb7U, 0xe7e9d2ecd80e010dU, 0x81e62a031016ebf2U, 0xd713fa0cecd522c3U,
  0x1fd51fec011b26cbU, 0xef03df04f9fbf30bU, 0xe7083208062d191bU, 0xef18f216caca15c0U,
  0x81fc42f0211fec3U, 0xd6dae3ffe00dfcdfU, 0x94f215012509f9a9U, 0xfac8e9190aeb1503U,
  0xf023d41b02f8018bU, 0xecb5dbe6c21904f9U, 0x8ae8270502f5ddd4U, 0xf8cdec13c6d125ebU,
  0x1716d3f6f9e4f2b1U, 0xe1f30909db020503U, 0xb9fa12fa3617fafbU, 0xe3fce61acfe222f0U,
  0xf2f6e904f2fdeccfU, 0xecdfeed9bddc250aU, 0xe9d7eaf3fabcade7U, 0x12fe04fdf20c043aU,
  0x11e6f5e20242fed4U, 0x61f1b16e8132a07U, 0xe8eefa01dd0cb616U, 0xc1605162901f81bU,
  0x1617eb0d04181009U, 0xa3802030b0920edU, 0x1c49f5ffdd342826U, 0xf5100316280c0bf2U,
  0xe10d9ef02a5e181U, 0xd7d5d109a1f0121fU, 0xd4e4ebf70ccea1d2U, 0xb0c040e1108f038U,
  0x100ed7f3f7f2deafU, 0xf0f91ae2cf1f3a19U, 0xd2e7130ff802baf1U, 0x1e0a02041d1afd30U,
  0x8fb00f70b1af413U, 0x11d0ffb03022cffU, 0x1c3908ffdd2d2232U, 0x50613091f040405U,
  0xd8443808f13219f6U, 0xd803d736dde30c19U, 0x8f8ef03df3320eeU, 0xd2308142727e530U,
  0xd42521df0e26f0ebU, 0xed031820e302f40dU, 0xce809fde12dd3f1U, 0x1020071e19180b2bU,
  0xe4013cecfb310b26U, 0x30810f611e3d7deU, 0x2a2004f9ac26fe2bU, 0xdf220d1c290cf2fdU,
  0xdc2c0d25eec30118U, 0xc0bef4c4f11cca15U, 0xe2fcdce0fbe311d7U, 0xcbd7ef17ff16ee02U,
  0xeff81108f2e00e1fU, 0x1806f6e6bc19fc38U, 0xfc1fefe1f3dae600U, 0x7fdebfee8f0f916U,
  0x26e4d5ecebddf901U, 0x1139f7e9f8fdd0e0U, 0x1e9bdbe3d8d494faU, 0x3110e0fa332bf4feU,
  0x52afd23e6d0e610U, 0xdb991fcef4192e15U, 0x50ff3fc17f429f7U, 0x90b5db11e4fdfae2U,
  0x1721e501e903dde4U, 0xe232de0a4034826U, 0x18310af923f6ff03U, 0x2014da09f6daf900U,
  0x27ddc302e03d0e22U, 0x90512d4fff23ff2U, 0xad3ebea01c981f6U, 0xf1f7d6f531fbef0dU,
  0xda1cfb1deff4fc0eU, 0xdac32b1104fbddffU, 0x1f2ed03fe261e0eU, 0xeec9e20ffd17ede4U,
  0xde11e7d7ddfbc4d0U, 0x19e13fffc10ae521U, 0x2a3a03fa1afd0d1dU, 0xfaf3d707e9dbfb12U,
  0x10f5d6f2e7040e15U, 0xf4c60d18ddf2ff02U, 0x25fadee211ebb011U, 0xebe5d8efeefafb28U,
  0xd322ef0ffb18d5b1U, 0xfe17d802d3f2cdcfU, 0xe8fe170bbeea0ce2U, 0xf6f8f40a17120006U,
  0xcb46af3bfee7c692U, 0xbdcd1307e512dfecU, 0x94180315f32738caU, 0xf1c7e4f7061df517U,
  0xc00ccc1505d3f9f4U, 0xebf22531c9f90423U, 0xe2fe0f10fc1f07f0U, 0x57ee01fa212b013cU,
  0x3fbedcef5d118e8U, 0x210ae6d2ddf524cbU, 0x42e80818aed8d307U, 0x3118e7fedbd7fffbU,
  0xdb33c7dff9c62186U, 0xd5b90cd8eb0e0098U, 0xe90b1216db23dac4U, 0xfb4ee301e80bebc1U,
  0xaa19d50b04e8f5d9U, 0x9ef3f51fe3ed23b0U, 0x9fea1124cd2304b4U, 0xd9c8001301f40c06U,
  0xd50fdee7fb07e60fU, 0x1201b22ddff91f66U, 0x33421609d7de524eU, 0xfeddf5edddc20b1dU,
  0x15fef9dbfdd60efbU, 0x26d803d6bdfcc121U, 0x22e619121381e11eU, 0x503efdbacd4f5f7U,
  0xe9090f190acefb17U, 0x17e71093daf60308U, 0xf6c4211629d8e702U, 0xe2f4edefcdec11e3U,
  0xbe0ebe8f2f8230aU, 0xe6fa33f500f311fdU, 0x23df19010c111624U, 0x1623eb17f1ea01d8U,
  0x111f3017f6eb0ed5U, 0xddb628fb14001520U, 0xe8e810fcfef43cf9U, 0xd5f5effdc1f9ff1cU,
  0xf7163a41dbdd1cf8U, 0xecd906aa05f53904U, 0x5360c0adec221f5U, 0x308eefbdff4f82eU,
  0xddf4e5fffbd02ef7U, 0xf9d5030fdee5f819U, 0xf70419180ff50eeeU, 0x1417f90df805ef22U,
  0xe4f60022fbd9713cU, 0x2b3231eec141b2aU, 0xf0191e02efe7e4ebU, 0xfbe7ec0ba8e6e636U,
  0x92ecf705f010e2ecU, 0xf3381216b81013e2U, 0xdd2711079809e1feU, 0xea9050f30ece22cU,
  0xd231b9e208fef9e7U, 0xcb8260917e014edU, 0x3f05f60a945410efU, 0xf61b10f3de11eee3U,
  0xe61bdce30507c321U, 0xf2291625e50f30eaU, 0xe08ed0eab3cd2deU, 0x9c8101014b00d4e2U,
  0xcaeae6f7e9eb87f9U, 0xe84c18d42f08fcd0U, 0xbf0dd07c102f7f4U, 0xc2cc050761fde5cdU,
  0xbb32e73bf1f4e516U, 0x92c4d0cf14fabfc4U, 0x8104d4d704e432ccU, 0x9dba1002aee822ceU,
  0xd70922280316072bU, 0xa1df1f3ea11262aU, 0x301d5dc32eb0f11U, 0xf00afc04b3be2d16U,
  0x2caae6d6fdd91f0fU, 0x1715051ad91333faU, 0xf20de0ecd8f409f0U, 0xf7fb080d21d03b0fU,
  0xeb32b618eea5efc8U, 0xac8ae2cae302e7caU, 0xba24dbf8cd190fc8U, 0xce1f11e79ceb13ffU,
  0xe91c322fee11c600U, 0xfe0d122ddaee2428U, 0xd10edee30b242deaU, 0xecc0debccce0d30U,
  0xcdbfac30718cd16U, 0xe1c2d13e60e1efeU, 0xf8e1eaef121fee07U, 0x10fa06f221d02200U,
  0x100ad5e4f4c717d8U, 0xbed1d6fbe5f1abefU, 0xdf28e7f5d133e1e7U, 0xb08fecdee11eeU,
  0xc8fd0809fb040f11U, 0xce10191deb1440faU, 0xcfebdde6e438e3ecU, 0xb5b907f3ead12103U,
  0xd3c2e4f0fbfebb17U, 0x12272c1300fc26e8U, 0xf4e8d8eae507fc16U, 0xe3b011fc36ce1705U,
  0x390928f9ef1c0be7U, 0x9bde142601e6baf8U, 0xdcf9e2f9f820e902U, 0xe4ef0ed4d927f2f1U,
  0xf7e909e8fcff27bcU, 0x4e33b1beaf6d404U, 0xd23818ef1c312c24U, 0x132910d9f0fb01ecU,
  0x96cb17ddf7040ddaU, 0x190bf2d1f2f8c013U, 0x20fd12f6f5e42236U, 0xb2102e0c0e4ffe0U,
  0x9103e0ff7f37654U, 0xc6c1e0f9dfe2e2f5U, 0xe9d7dcf52fdac0d4U, 0x1f2b0dddbb05e12bU,
  0xf9e8590ffbca3f1cU, 0x15ee20ced008f7f4U, 0xd3d71ef722baebc5U, 0x33220fd9d3fbea2cU,
  0xf6b305c3f8dbe0c4U, 0x16eae094e4f9f8feU, 0xf0072513c9973e06U, 0x1ced19e5e204f6f9U,
  0xad391f110b31cd37U, 0xe634c6690cc037e3U, 0xf709cceae27ff2dbU, 0xd7861abc3c0bb836U,
  0xbf0a0fd8150397ecU, 0xfc490b24e8ec43f1U, 0xf5cee6fbf43af3daU, 0x1d820d24e05e627U,
  0xf7f5b9e006e1aeddU, 0x5eee7dd0dded701U, 0xf9bef4fecff268e7U, 0x14012ebe2f08e7e0U,
  0x3d5240af5e42c16U, 0xf30b052c1bdbb9c7U, 0xdbbdeb0107f70c10U, 0xda1ffefce4fae50cU,
  0x24e00ee506d32a01U, 0xd1ea09f124e49bbfU, 0xe4bae903f0fc02f3U, 0x24f05e8c4fce8f8U,
  0xedf2e5f6f4bf1af7U, 0xc2fb46d14cca81bdU, 0xed6e106e3241ffdU, 0x63211fba2f8e9e1U,
  0xf01ef838f5e62a1bU, 0xbdbf4d005f040d7U, 0xa10f6f7d32601U, 0x26faf9eeefeaf827U,
  0x1000f407f7e515f7U, 0xfcf8ebcde30226e8U, 0xbed60a07e4b1ffd1U, 0x4c19ffef01f5e518U,
  0xffe8fc22f8f40cf5U, 0xe00227b1f6e528d2U, 0xcacf05090a9bffdfU, 0x260c05efe8ede8feU,
  0xe91107f20ce81e02U, 0x1fe4f4d2e8e1f8e9U, 0x3031210af7c7fd0eU, 0x1e2d0e03fde10a30U,
  0xf600effc0507120fU, 0x1feae7eac3fce9ffU, 0x230415051bb7f411U, 0xd0015e9eee3fd48U,
  0xcefafe0903c2f605U, 0xf90f0ef9dee6c1efU, 0xf2e10f0025b9bce5U, 0xeee10bf32809ef28U,
  0xc01eae5f4c2d390U, 0xb59095e3e0e4e8f1U, 0xfcefcc030cd108edU, 0xf7cb0d0ab7eae92eU,
  0xf823f7f306d4f593U, 0x8d917eaa2091408U, 0x810f191a1bf8f7bfU, 0xfe030307f6c80e27U,
  0xe020cee1ac6f1cfU, 0xd226b017b50eede8U, 0xbce8ed0def09acfbU, 0x25e608fcdce90a29U,
  0xf91ce1df10c115c5U, 0xeeebc10ced01e5eeU, 0x1c0ce10ef530f62cU, 0xf50416fafce5f9fcU,
  0xe133f6ee17ff08c4U, 0x261c2618d534f2fdU, 0xe83a2f290c4cf8fcU, 0xe713071323eb2415U,
  0xe3110ade2018f401U, 0xf326cd2fdb03e5e7U, 0xe5ef1220dd4aefebU, 0xe30e061315e91214U,
  0x11db30d5fffeef03U, 0xdff8e9060ef0fbc9U, 0x14e2b901bc13ea15U, 0x108060eed12e8f0U,
  0xee0134f10d050e42U, 0x321a1f0c030e0acaU, 0x2b14f51b07291e21U, 0x3740021b1b0a17d2U,
  0xe9e427f818f0f23bU, 0xfc0ae41214ebe8edU, 0x20cad603eaff2f28U, 0x3211011f811fedcU,
  0xb5093e120e1fcf4bU, 0x23202d06f3180239U, 0x294600eceefc0f4fU, 0xe0e7000806e3efe7U,
  0xbb44482104649d3dU, 0x26f91227c9fafb39U, 0x246919f503021759U, 0xc081f107e7c1f7ffU,
  0xe90b22d9f50ba92aU, 0xf3cec623c6c7092aU, 0x20bcbf3c40bf41cU, 0x2c9ffe8d2cec416U,
  0x17d8da140ef821ccU, 0x102b3fe7f1f7b4e9U, 0xee0016e3fcfbf5e7U, 0xf829fa04f5ec05ebU,
  0xff3bf9e10a2262bdU, 0xdcdbf82b0904bde5U, 0xf93611f41c58f9f2U, 0xd14af00f0a2101d6U,
  0xc8ffb3d3eeddfbbfU, 0xccbcf54407ccbff6U, 0xfdd3bddfc441e9d3U, 0x810cff02d601ded9U,
  0xe23ced4c0cf0f026U, 0xde1625eed5df12e0U, 0x9af2dee842e117d4U, 0x24fa19032129f436U,
  0x28ec07081eee5428U, 0xe3cdaee9d5de2403U, 0xb737f7e63ce3ccbaU, 0x5c200b13fbed0d28U,
  0x61dae8ef0a884beaU, 0xcbb0d8da18cadaedU, 0xcfb6b2f1860ebaafU, 0x5c2a2100b312d31bU,
  0xf62900123a1aeff6U, 0xe30a3b210e2adcaaU, 0xdb2731f9fd2cfdfbU, 0xe6b40d09313d3d17U,
  0xd1fd03f32e0bf00eU, 0x5e6181ddc29f623U, 0x210642f0f8f83102U, 0x1ec091309f441d9U,
  0x3afd09e236f300c2U, 0x3904fbe9f817f720U, 0x2a2f36f0c0f4130bU, 0x1009091507ff35e3U,
  0xe821c5153503c3bbU, 0xdd271bf00b32d2a0U, 0xc3f039f72006c3bcU, 0xd6a8190b531f4216U,
  0xdd1cf52e1eeac310U, 0xed138d1f01af122U, 0x1c2951e12c054603U, 0xf1cf0a07c6fb48b8U,
  0xfc806db36fd00e1U, 0x4644f6d0f5200e38U, 0x29172debd2c0001dU, 0x3a2c08fa2afb2104U,
  0x2c08f03a2306f6eaU, 0x96e1d98e111dabd6U, 0xf0db14f0c5a0ddb1U, 0xa6f2012015142419U,
  0xd3fd081816f0f411U, 0x2ac941d2ec25eb2bU, 0xfa192df949c426f2U, 0x5a50e2e81043dddU,
  0xe5a9c6f43705d201U, 0x322c1be5083a5743U, 0x2f1f1af2debe0c2bU, 0x13fe10182ae6220bU,
  0xe7e2d2ccecf1b2e9U, 0xf6ebe31be3fd1f2bU, 0xe30bf103c3fdfafcU, 0xb7b6f20ae6cb0000U,
  0xf1f3cac5f8d9b4fdU, 0x1ce80204ccfc1b58U, 0x2bf0ff0b0ff739U, 0xa0cef60dfcaf11e4U,
  0x3ea12e208eea30dU, 0x17e1fff4def00649U, 0x1212f602051d0a33U, 0xb7f0f31cc29cfbe3U,
  0xdd01531ae7f161f3U, 0xc5e00d07eaf6ee9fU, 0xde4ece2b411ccd3U, 0x1d42f8020e13ea03U,
  0xf01aa9f1f4e821a1U, 0xd5ce0f08faebddd1U, 0xd2fcf204c10b0404U, 0xdf1ef417fe03fdd6U,
  0xf001c4e8101a81baU, 0xe5ecfa05eefbfd26U, 0xf7e0dc06ea27cc27U, 0x97afff01e5d3dfefU,
  0x65b1a22e8f1322eU, 0x1928144edcef1ffcU, 0x19da02f1fe181a00U, 0x462df9062df80645U,
  0x6fffa0ff8f738cbU, 0x14440707f30cb3c9U, 0xddfcfeeffdedf5ccU, 0x4922e61833ff061cU,
  0xebf3ecf909ddc6dbU, 0xdd082014f62a1706U, 0xc909fd0118050beaU, 0xecda011103060c11U,
  0xd1efff01f013ab02U, 0x5f40ef206040c49U, 0xeb0501fbf6072008U, 0xe9d7f7f507f3e6f3U,
  0xd5d70adceaeb0720U, 0x26ef0814fb1bfd4cU, 0x1e0c020928131540U, 0xf608e901efd8e8f8U,
  0x28ec16d3e6d233feU, 0x803ed15f2ecef21U, 0x14000af6f9dced09U, 0x1e19dcf0ebfaffe0U,
  0xb19e4faf8f40096U, 0xaec111ebf212dcbaU, 0xf90bf9f6d31001deU, 0xd1fdf707f005e6d9U,
  0xac17dffef003e803U, 0xf7e21b25e715fd12U, 0xba0efffd063bfe1dU, 0xa281e105fdf207f7U,
  0xc302cd0ee6f6dc11U, 0xf907ea070900f81aU, 0xed03f6f4dc083d16U, 0x18e8eb10f7f1ee10U,
  0x2806f3fff8dd0df4U, 0xf1dd10bed52011c4U, 0x20f118fdf8e598d1U, 0xfcf9e701f106f416U,
  0xf0e51316f7222d26U, 0x4dd0f0ede031db3U, 0xde1d17050c06c6abU, 0xe20ae605ff0c0808U,
  0xb809ed55f9f9102eU, 0x132e323040e26e4U, 0xe504100810f9f8ecU, 0xede4e7031e050115U,
  0xce00cb1008fc0af6U, 0xc800db29fcee25acU, 0xecc6ee10c5fbabd7U, 0x21ff11f81413fc13U,
  0xd0e5bb0cfd082705U, 0xa3ef4100dcee1bb0U, 0xc2f5f212e5f79ca8U, 0xaf5fe03181a002aU,
  0xde24c92dfcf9f2d3U, 0x88f20d0708f0219dU, 0xb3dad200d331e491U, 0xfeb809e3374ffd41U,
  0x233a8fb05e52dc4U, 0xf6cbedf8e4e9e6b8U, 0xbbe061eece4cfcdU, 0xf6fc0ff6e90b1700U,
  0x316e71a05eacddcU, 0x98dd3adcc2ed04d7U, 0xca08080438bdc3d9U, 0xe8d011e829101616U,
  0xd1f0e3100de5f20dU, 0xcad2f6a7eae9dbe7U, 0xe5db00090ac3d7d4U, 0xe80516f74711fb0dU,
  0x1cec16bf0afb2f3eU, 0x3fe0cf20d8efc532U, 0x650ff914d3bd2b3bU, 0x451f0ffcbceeff06U,
  0x6da25fcf7edfd50U, 0x318b1e98c901e85fU, 0x3115f8141b81200aU, 0xddf511fabbf60b0cU,
  0x1a9e18da08e3fa75U, 0x39fbfae0cdeef666U, 0x4a23fd1001fb0f54U, 0xf0d05f1c4cb0108U,
  0xecb0edb6e2e819e4U, 0x1ff11cefe0f10feeU, 0x13d9cff3130bb911U, 0xe429ef0ce0e4e2c9U,
  0x1fdc0ae8e2c441e4U, 0xfcef09c5e7f517ebU, 0x18f513073afbeaf1U, 0xfb58f704f8faedafU,
  0x1d15261fe1f30de5U, 0xeeeb40bfe10c2edaU, 0xfaeefb14fee1fed8U, 0xe115fff7f022f8c9U,
  0xc1c11dbaf50eff2fU, 0x2fea1e21bef5f022U, 0x1413e4f51919e625U, 0xebe900fecbc4e103U,
  0xb0b0ecc0005071aU, 0x4004e537b112013cU, 0x8481201164b1926U, 0x81406fb06ceeae6U,
  0x1c0d15edfc011216U, 0x3bea1133c2080227U, 0xc250b18da131813U, 0x160307ffe0ea0415U,
  0x19e4c4edf0a4abaeU, 0xbd05f51125c8fa0fU, 0xd4bf81efd905c0cdU, 0xfbdc1adf0e1ab243U,
  0xfb2de91c04f4be95U, 0xc21700ed37d208f7U, 0xa3ecb1f81715f2c8U, 0xd2df17e13132bc2eU,
  0xe941d842fce4f200U, 0xa72ee10b1ccfffe1U, 0xa1e6a510fb06fdc6U, 0x2dc11df2348b93bU,
  0x25dd0bbbf2eb29caU, 0xfa14da28d8ec33c7U, 0xf1a9ceddefe8d803U, 0x562934d0e1e8df5dU,
  0xd0fdaed20f1bd384U, 0x131e2e933dd3411U, 0xc2eaf7e3e32c0ef6U, 0xee171de23f0afcc8U,
  0xf1e8311613d60f2eU, 0x2ff823d30ba62a34U, 0x23c7f4bf02d23334U, 0x30922f6c0f3f701U,
  0x3ed0ed94040aca8dU, 0xa41af30b2e0d5e6U, 0xcc8beaeabebcc7dfU, 0x6f3235cc0df4d44eU,
  0xc507952c1002e696U, 0xe3ec49634cdc914U, 0x9a0000ecd7d73fcdU, 0x11240dd42c0508aeU,
  0xd411f9421503dd13U, 0x130ef9eef6d3e848U, 0x1ebef9d3ecad5238U, 0x2ef823e781e5e8ffU,
  0xdccb4899130bd7dfU, 0xee19b139bdcb03e6U, 0xe1b6ebe9f8f9aed2U, 0x291d1bd2eaf2f149U,
  0xece81f20090327ecU, 0x1021e4ba19d8d818U, 0xe2e80de20801eadfU, 0xf8240ed023e4fcc4U,
  0xf3381d050bd905deU, 0xbc01c0cedd5c63fU, 0x2ae8f0e91e134611U, 0x12f41aeaa9e9fcf6U,
  0xe00bd0406dbb0a0U, 0xbc070616e5f2eee4U, 0xe905da191619c309U, 0xa29df511fcf2e2f0U,
  0xf3071421fe41f20eU, 0xe3effa17f2e9eef0U, 0xbe0bdd28e31718fdU, 0xc2bdf91108ece1eeU,
  0xef0ffd1203ef1817U, 0x7f9e50ffaf1d623U, 0xb0fe61ac4102a10U, 0x190d020a13fafb28U,
  0x31df5fd02f9ebb1U, 0x84c2feb1e107f9d7U, 0xda9ad82bf9ddaed6U, 0xcaf0f109e3e8edf7U,
  0x32d1b1708f8fcf2U, 0xb68103dbe2faf2cfU, 0xd402ee1ef9fd1adfU, 0xc3ccfb11c4ecf1f0U,
  0xdd181814110b1a22U, 0x19e9e2f1f0fe2918U, 0x19f7fe25e3183210U, 0x1bfd0710fefbf617U,
  0x11fbd71500d81f0eU, 0xc6cdfa8d0beec5daU, 0xf990db1ee39ee5ddU, 0x912fefbfbeee10dU,
  0xea20052102c63214U, 0xe69f0ee30b07eff7U, 0x3eedb1c19cc2fe6U, 0x1bfd0314a2fdf51fU,
  0xd9f3fb0a14defe22U, 0x25180612ed01453dU, 0x1701df15d2e90638U, 0x25c9fd0306e5f235U,
  0xb9cfd13bf9ef270eU, 0xe0e738fc0c0917fcU, 0xfd1605f514e61303U, 0xc7c810300f072c05U,
  0xdbead10cf331dabfU, 0xe1db0ac9a3f93e22U, 0xc929ff09f69515ddU, 0xce911415d3d1303aU,
  0x39a9e8adfbb9b6efU, 0xd0021dcddfee19d8U, 0x1695d323d0b4acfbU, 0xdf126d723e40f3fU,
  0xc85acd360aef19f0U, 0x300230edcf51bf7U, 0xe0fa1613fd1d53e9U, 0xeecf060b271e1e19U,
  0xe149ee100219edb6U, 0xd6c0071581fd3939U, 0xa822251b40f00cbdU, 0x14bdf80f09fb1a32U,
  0xf9f9c7db10fca8cdU, 0xd1ef1d0496d62513U, 0xbdc4fc3fdbffb3c9U, 0xc529daf6f60239U,
  0xce1ae6f2fad24ddaU, 0x2e0e1bc6fad4c4e8U, 0x7bf3171b933d1d1fU, 0x266bff16f20317e0U,
  0x9467e02502fbf80bU, 0xfe172730cde5f823U, 0xf31a2c20134f43eaU, 0xb706ef07370e3c01U,
  0x8cf1f1d21825e71aU, 0xf84b0924efdd0727U, 0xf1dc003dd453ebf8U, 0xd50b24e619eafb25U,
  0xf7173200dd0cd217U, 0xef28ec56c6fece09U, 0xe33ee5e4d6300704U, 0xf9b112e6210bfa2cU,
  0xed1e1c07e626db1eU, 0xfb05fd3dcefac71eU, 0x534ebe9f13c08fdU, 0xfba005ee3307f222U,
  0xd4005002d9bdbbcaU, 0xf2c8d12bf9ed9d0fU, 0xe9eacee3b4021e04U, 0x11eff9010f26ee33U,
  0x415ecc5de0101a4U, 0xcfbfe3e9da044004U, 0x3eeeaf5ab32a6b2U, 0xbbe302f2f4eef6f3U,
  0x40707f0e621dbd5U, 0xe7d003dfd3f83619U, 0x614ecefea0dbbd5U, 0x81d6f6f7f8000bfdU,
  0xfb2a182ef0dde9faU, 0xd2c8e4e707eb3bfcU, 0xfccbe4f2e12721e8U, 0xc2f30007042bf2f3U,
  0x17f3b6f8e5e516c8U, 0x11d6eb84c40201fcU, 0xfddcedeef686b8deU, 0xfb010befe3df09d0U,
  0xf4fdf1fae0e2f1f8U, 0xec700b6c9f10103U, 0xfa14fafbeba808e7U, 0xff0205eeb2f308e9U,
  0xd40f0a16f7c61822U, 0xb09ee2bfdf1fd03U, 0x14dfe9ee0c1f1417U, 0x9f0060cd718fb0fU,
  0x41cfa0be4e42494U, 0xddcdcedd2d14e7afU, 0xbb0eeee5f8fcfcc6U, 0xe520ef05f42603e4U,
  0xc32ddb0fe5ee81e8U, 0xeb5ebfeec06fd21U, 0x222d01e7fae05729U, 0xce87e706b2e9fce5U,
  0xf8ead5ebddba0febU, 0x3e00e2fb08f7f5eeU, 0x45dfc9e6cfc3b60bU, 0x430ff90e1512de1bU,
  0x3cde07f1d9df56cbU, 0x3016e2d7f33b50caU, 0xd7eb1aeb29f7a1bcU, 0x4060d8191dec221eU,
  0xf4feea1ce0e50f02U, 0x8ce29eaeb235809U, 0x43140f6551c3a1fU, 0xcbeac71bd5da2facU,
  0xf414f3eaeffa1608U, 0x400afb2be3284cf7U, 0x480702f209e9e71cU, 0x4209e92323001deeU,
  0xf81bf9e5eceacbefU, 0xdce4d216ebf0f8fcU, 0xb7dbc200e11a11d0U, 0xe25fc270ff3f149U,
  0xfaca02eee7d50ef0U, 0xfb08f1ac20f3d204U, 0xec11eef720adfcefU, 0x1105e819d2e01109U,
  0x13e805f9ef00fee6U, 0xffe1c5fd15edc40eU, 0xfac1b0ee03d8e3ecU, 0xfeea060be804ebd6U,
  0x3dc9ecceeff0ddf6U, 0x1447c43ef0fafdeeU, 0x389eb3ebcfe1cf1bU, 0x28fa0be00bebe30cU,
  0x45fcb8ebf1d2c2a6U, 0xe609e28c09ddb4ecU, 0xf492bbececa281c2U, 0x904fae83511cc0cU,
  0xf37cb04e1cb9fccU, 0xc782f5c020c0c302U, 0xdbcfb2eed70711b8U, 0xe8d906e4bb12cd0eU,
  0xfee8fbeb0bd4f314U, 0x4033df32cc0b6704U, 0x1e1f0204f108fc16U, 0x1afafafc08d803e8U,
  0x43e610e2131006deU, 0x12f10faec5f85fe0U, 0xee340000e8e4bbeeU, 0x8fef8fb05d412deU,
  0x6e728ea06d40ccaU, 0x4d32cbcf4eb4edaU, 0xeb0aeb0c1707ebecU, 0x41af9f4c0f5fadaU,
  0xb62ded0113f4f010U, 0x28f8e137e90b1a1cU, 0x15370100f6163020U, 0x14f60ef9e4e7f516U,
  0xf60504fc13f7170dU, 0x18f3fd23ccf614feU, 0x60f0509e4f0110cU, 0x1604fb011000f90fU,
  0xf6140700f1d31b3cU, 0x80a1d1ae6e21cd5U, 0x521f7ff07100708U, 0xfd020af90cefed15U,
  0xbadbfa2109e31541U, 0x82ae31cd801e642U, 0xf52e05f2db11fe2aU, 0xf6d0fcf6f6dd0036U,
  0xc1160fdc0fde010eU, 0xf8f0fc42c1f8ef19U, 0xe01d00efd9421c10U, 0xe203010df1070fU,
  0xeb0919c00be510d9U, 0x15e40e14bb0ecd2eU, 0xf4ed15e2c6fb1301U, 0x45110908d9ed0b13U,
  0xf2efb2e80de8ebbbU, 0xcc33ed29d3f9f2b2U, 0xe2fef1e2e40ed9d6U, 0xfee203f715effa01U,
  0xda0b992805d789c3U, 0xb31414f0fce4dbc7U, 0x8dd7fff5e004f0d6U, 0x83be08fd0a03ffc8U,
  0xe00703220ed1cf0cU, 0xfa04e206f8d9e425U, 0xe8e30cf60cf91904U, 0x18080f04f8fdf805U,
  0x1300ced011dbf6d9U, 0xbf32f7eed2e800b9U, 0x1081fde6ee049ef2U, 0xd7f80efb15ea05ffU,
  0xfa16d7320bcbdddeU, 0xd7f52594f9dedadbU, 0xe7f70ded13caf4daU, 0xb5f308ffcdeafbd7U,
  0xe111f52310c9eb12U, 0xf0607ffeaed434aU, 0xf7f41cff1ae83327U, 0xe4e20af4e3f00320U,
  0xd614e1310df9d1ffU, 0x12af0ef040ff138U, 0xf5153b0827d92bfaU, 0xfadd060e29251b21U,
  0x4e6d20302dae4f2U, 0x273b09bdff0fb9bbU, 0x1ec013f0b4b90000U, 0x200ffe0204f9030cU,
  0xf22af22603fff8d6U, 0xe7ee25ff0c01d4f0U, 0xc0051ffe0c223cb4U, 0xc04fdf30c210dfcU,
  0xd02ac7311005d7beU, 0xdcf1eecc260afd21U, 0xf518310715dc2805U, 0xf5e70607e02414edU,
  0x12dbb0e100fee4ebU, 0x132d1df80f0ce509U, 0x18ce13fbc6812417U, 0x2618f9fadff70824U,
  0xde19c613fbdb22d2U, 0x11f50cbc0918e9a2U, 0xd7ed07fef412f0daU, 0xe508f1f8fe2c14f5U,
  0xe52cfa060f1f00d8U, 0xf2e1fbdde803f20aU, 0x113424f9dc06fc0bU, 0x60bfc01e61820f2U,
  0xf011fdec06e8d1f3U, 0xbe7fc1de4130831U, 0x5fd1e10fcf41614U, 0xfef102e9d805f324U,
  0xf3c801e117c81926U, 0x9cf1926e0040ee5U, 0x17d919f609dcd813U, 0xe8fcf3eaf806050fU,
  0x851d32e19e10617U, 0xe6ddf507f7f4e505U, 0x1105dffbef110aeaU, 0xf8f313cc1125fe15U,
  0x720f11116e711edU, 0xe799072ae101fe16U, 0xe807e504e1f613cdU, 0x2d217c70912f73cU,
  0x1f2d05201902fb03U, 0xf4c7dc05de081617U, 0xdc1fe7f8040405efU, 0xf7bb21bb1918e848U,
  0xde20db090bddbf1aU, 0xf6f91a08f6f10107U, 0x19fbf1030220150bU, 0xd3c000d1fff9f6f2U,
  0xe51de20f07ebed0bU, 0xf2b50a1cc9fff817U, 0xfb09fffb011cf506U, 0xcc8112de03f8fa24U,
  0x638e6220debdbf2U, 0xcff3052dbf01f203U, 0xc70ff20f2327f9f2U, 0xfa9516c4360eeb32U,
  0xd10409ca09cbeaf9U, 0xdf90c0218fbbcd6U, 0x47e3ebf1c41c2b35U, 0xa7fb16d6cde9f1b8U,
  0xb21b1b031acbd814U, 0xeae62120e509c7feU, 0xcf1eef007220e14U, 0x97c217ddf1fb02ecU,
  0xca153428ff0bf436U, 0xe006fc1ae803daf7U, 0xf7e9dbfff7170cfaU, 0xdad81ac80917ea07U,
  0xf61ffe37f16b15c8U, 0xca5be45dd8fddcceU, 0xe5070beda51d0321U, 0x3ce8e6f7ea02e154U,
  0xcf43091af21513baU, 0xcc24102feb0ac8abU, 0x87b42501b01fec81U, 0xec14e5024531ec06U,
  0xef131c30f1041e13U, 0xf4e9f7e3d805ddffU, 0x1f12ee043041bcdU, 0xfd29ef070b13f308U,
  0xf2e520f7fb06d7U, 0xe121f3fee60beeb3U, 0xb4b119ee03f59eacU, 0xc5e1fbef0d15fdcfU,
  0xb5c90656f9ae2f76U, 0xf39eeeafeb0bed3aU, 0x3d42cdb49e6d307U, 0xc1ede804b8ea03d3U,
  0xacb80bd502e11c40U, 0x2a030d4bc806e319U, 0x161934e1e722bf29U, 0xf2e3eb0ae5cef815U,
  0xef09f634fcbf272fU, 0xebe60220db08f847U, 0x3d171df90ae50634U, 0x1204da0c9ed5f1eaU,
  0xd2b9d6daf0a2c62dU, 0x2d6b0653b00c593cU, 0x1c3e2eddbe2ca444U, 0x1bedd0a2bb8fa21U,
  0xbffbf2cce6f4ebebU, 0x2f24e80d0dfc45f4U, 0xfe302bf9bf20be01U, 0xcbf4d90f5700ee17U,
  0x3c115e711da1a35U, 0xfc0d0de02bdf1f24U, 0x23ceea18fef70f23U, 0xed3e32fdfae3f6e4U,
  0xfddef824e91e0cU, 0xfe1ededcf6fd260aU, 0xfed60227f8ffd4eeU, 0xfe2a33e2f9fcfbfbU,
  0x528c9fa20edf5baU, 0xe5e5fef9fcf418e7U, 0xb9f4f41edd18eaa9U, 0xe7ef33df121de509U,
  0xe3a329e320101545U, 0x4a19f1eef6fa2e31U, 0x29ebf81903da1534U, 0x15292df5bd81f7e9U,
  0xecc402db2a230df9U, 0x204cd5d4bd002511U, 0xf3fa1129f2e1a00dU, 0x121e39ed0cc3f8e4U,
  0x180cf52c1f13f8c9U, 0xa0ce7efed0b1210U, 0xcf08082a19ead9d6U, 0xeaea38e711040102U,
  0x15c901c3fde2d800U, 0x1f1108250ef8f128U, 0x90bd70d0317102eU, 0xe81429f1d7d1d3fcU,
  0xfcbd69e16ec0903U, 0xf634de0ed8e2e71eU, 0xf0e4dd1de4f1c3fdU, 0xd2328d9fbd1e6f4U,
  0x5fc1cffe10eecU, 0xd316f0f4f7e7f50cU, 0xd50ddc1631e2aad9U, 0xf6f33af00101e424U,
  0xf1ddc4b727cae708U, 0xf2cfdffbfee710f7U, 0x16d9da09dedeed21U, 0xfcee2fbeccfef516U,
  0x1cf2e5b82ac1f22cU, 0xefcdfcf705e807efU, 0x36d2ccfdcacbf32bU, 0xfe052dd68af9eb14U,
  0x10fbceb519b80016U, 0xdf13f80aeae0e8e9U, 0x35acc206fde59222U, 0xf2137dec925e306U,
  0x5c111ca0fe7e711U, 0x2d0e6d809f23f16U, 0xfce9db0ac7fcee23U, 0xd8ef29c7bccad21bU,
  0x5c6f1b016b6f2f0U, 0xf4e9f8ee00f63711U, 0xeaeedc10e414d91fU, 0xdb0a25c6a2b2e716U,
  0xfbdee5d21bdfe128U, 0x4fd1df006ea330fU, 0x20cad60af6ffec37U, 0xf0221fd9cad50003U,
  0x8e318c11be6c816U, 0xe8e6dc0bf1f3071dU, 0xf601d800dde30b2eU, 0xa9cb2fd881a7fc14U,
  0xfbdf1aa621d0f3fbU, 0xf400d5f8eeef0429U, 0xf4e8d5ffd6ebcd16U, 0xc2f52fceb49ffffeU,
  0xf4cf14be12d1da07U, 0xe5fcea06050c0820U, 0xe8e2d005240ce21eU, 0xc7f429d4bbc2fafcU,
  0xfc05d4210219fe12U, 0xd5051511f1041ef5U, 0xbfeb1efc24ffe7daU, 0xfea1e12b200c0b12U,
  0xd81cc816fc26eea0U, 0xfdbb15f8e0052818U, 0xfa1e2a012cffc5c8U, 0xdaa9d41e180e1a08U,
  0xee16cb05050bd48eU, 0xfca902f1fc1c1e0bU, 0xef2a1607020b03feU, 0xf1c4d714fe0dfb10U,
  0xd116f908f004f5c9U, 0xe7f20ef6d6fd0ef0U, 0xadd230f62c04f6d5U, 0xebccd0160b130f12U,
  0xed1ff319fe22f781U, 0xfadb22f8c6181dffU, 0xba0e31f20ef5bed2U, 0xe7bfd410110f121cU,
  0xe32ce9360523ef99U, 0xcef12fcf32112e9U, 0x20d20faf406e5f6U, 0x9c0d6200128002cU,
  0xc609d0d8fa38dcf2U, 0xeced1025ed09d6c3U, 0x33032df1ea43251bU, 0xace5e51de9e314f0U,
  0xdd0ec305f72fc3b7U, 0xcf0e0a2ee013c8bdU, 0xf81f3001db2d11edU, 0xd7c5e02406e60cffU,
  0xdb22b0fcf637b7d2U, 0xee010f100619c2dbU, 0xcf818ffc614fef5U, 0xfff5d917081a070dU,
  0xf1ec1eb700e5d113U, 0xcc21c41c380322ffU, 0xcfc3b2d1cd42efe4U, 0x11e9fb2a1ed9dfU,
  0x72ee21c12e4252dU, 0x3e3015e5102b230fU, 0x1e2f3500020911f4U, 0xd63d201352424bfU,
  0xda60eb4b17f30d0cU, 0x16f4e2ea05161be7U, 0x2a3826f3fa2c20f2U, 0xe620deffe43313e1U,
  0xf09b1be50df12d4cU, 0xf5e3c6b133facc1eU, 0xed9fafd5f0bd2124U, 0xd523fffef1f1f5faU,
  0xdfe2f41ffeef4e3eU, 0x592f429bf82df432U, 0xeff35ed16b13229U, 0x1242dd0201c027c1U,
  0xfbeee50f03062c10U, 0x1fe71ebce614c91cU, 0x20331cf003a4ec13U, 0xf90decfaa4f22bdbU,
  0x22a510e3facd061aU, 0xebbdadc949f6d930U, 0xe48182d5b9d1f8eeU, 0xb1da0a0d9dceb20eU,
  0x36d10e08001de207U, 0x160e32cee513d033U, 0xdedee0e935b804ffU, 0x130de8ffb499f5eeU,
  0xf5c21ad80128faccU, 0xfb0fdfe9f005d914U, 0xe40cd1ed2fc9d2ffU, 0xfaf2ef10dad2e912U,
  0xc201822efd7152eU, 0x15ed0ffcc5ed141fU, 0x121b020eade91b23U, 0xceb17fcbdddfc40U,
  0xf516e5cf0441ef9fU, 0x22c181ed50cf081U, 0xbee0f405bc06d9c3U, 0x20fe05ef3703f21fU,
  0xdbfd1102fccdeb12U, 0xf8b1c7d1ee06f639U, 0xe7e1050a0bf80f03U, 0xc6ef03f8f6e109f0U,
  0xce00d1effcfed7d1U, 0x2b072ccf0418b2U, 0xc8ef0607c721ead0U, 0xfce516f814f4ee1bU,
  0xcef5bf10fbd702f8U, 0xd03010df0004c9ccU, 0xaed7f512d6eadfadU, 0xe1ff07e53517e2e0U,
  0xd40acd1d04c9ef33U, 0x25c7d4c7e900ef43U, 0x19edfc052db31e3aU, 0x3bd01ea9bdde909U,
  0xf0b1cdf0a0d25f0U, 0x3def614e2f723daU, 0x5f9070ac90de6f2U, 0xf7051504fcf6f92eU,
  0xdc0b030ef8ce1704U, 0x3a70ddc06f6e31bU, 0xfcf6f20bf5bf04f9U, 0xf60011e9e3ecf0efU,
  0xe4faf5eb12e8f1ddU, 0x2f15f614dd131747U, 0x26fe07f910f30d1bU, 0x2a0c09f421fdfe17U,
  0x1acaf3d30f0ed333U, 0xbffdaf501db093fU, 0x14ebdb15eb02042eU, 0xe7073bf3e7f5eaecU,
  0xf129d44221fa06e4U, 0x3f31e9dfefd41bedU, 0x15cc0a10cfe0ee08U, 0xf5fa34e2120a11d7U,
  0xe94df5681eca040dU, 0xd201f0fae1070cd8U, 0xd2f20f0dfbbf1892U, 0x19d723e6f92b0022U,
  0xdf81d6af1824bb15U, 0x9f4e1c7f0de082bU, 0x7e1e511dfeeea3bU, 0xccd42de1a49ffddcU,
  0xd835ac4313ed06d2U, 0x3921fdf0eadeeeffU, 0xfcdc0910e9c7f006U, 0xe4da3be3eee510d0U,
  0xd130f2521efaececU, 0xe51b09d7da00eae9U, 0xbcee180d0cc42a8aU, 0x25da2ad9e8fd140bU,
  0xf094fcaf0218cb23U, 0x201bf113e0c8e91dU, 0xfd06f112fe09f137U, 0xcee929dfbcb6faddU,
  0xe726e85018052706U, 0x1b18ede7ddf5d015U, 0xf8fc0f14fec1e9f5U, 0xd2e537d9f4f0fbd9U,
  0x2160c290ec51cd3U, 0xf11e021dc51df6ffU, 0xf4161215441015cdU, 0x24061ad4041c1a22U,
  0xe7f5f6cf0aeef5eeU, 0xcdedf1cf2f02e20U, 0x29ccdc1ae80b0403U, 0x1c1f2402f7fbf501U,
  0x31d60fc405fd4adaU, 0x370436b0010a29ecU, 0x17fe221c16c1d818U, 0x344308f3f9ef12ceU,
  0xe9f10af8fdfdfcefU, 0xfaed28d106e935d7U, 0xe9011d1a1d0b171fU, 0xf3fc07eefb0309c3U,
  0xdd19bcf80cf292b9U, 0xd1a9cc3d04efdcfaU, 0xd901e50adc492ef6U, 0x878135eeea14ebf9U,
  0xdf1808f50b06db10U, 0x72e82324e905f931U, 0xff1727230f162e29U, 0x2a0b030612e01f15U,
  0x9cbf1d617052f11U, 0x28eeeef1e5f6e7feU, 0x1104221be1af042fU, 0x1f050ee6efdc0fe0U,
  0x282de61e11dc16caU, 0xc4d2f7dc2be2d5c8U, 0xebf2ce04fb11cbc1U, 0xafd36ec1447e909U,
  0xca53eb43070efef8U, 0xefc731e403ec0ce5U, 0xd90c162d02231eeaU, 0xd9de1ceef92518fbU,
  0xf01dc92912eae9dcU, 0xefe8c9fe0afe100bU, 0xbe0c1524e6cf1b0dU, 0xbce0aea1b132407U,
  0xcee1f107dcc91f3bU, 0xede4000bf404e2dcU, 0xee610112ac0fee9U, 0xcaf6fde62424ecc4U,
  0xf7e5f90ce3b7131eU, 0xf081fbb2e7f7dcffU, 0xfef511072596dce1U, 0xf2ff0cedb900f9bcU,
  0x410e60cf0e51112U, 0xf0c5f6a9cb02f002U, 0x301091a18b7e7d8U, 0x19ff14e9b003edb2U,
  0xecf2c808d9c5e515U, 0xfdb209dfff0aca1aU, 0x28f3ee0931d40e07U, 0xb9c6f709d8f2f8b1U,
  0x208ddfde2eae0edU, 0x1a10aa4dfeee819U, 0xefe9f10515b1d2e3U, 0xe3d7fbf5deea0fddU,
  0x619d807ee0aeedbU, 0xfde7f98be6fdd509U, 0xefe3050c11a3c3daU, 0xedec00fde2ed01d2U,
  0xe603d518cfe9d401U, 0xf5b51ef7f2f5ef1aU, 0x509ee032cdd230aU, 0xa2a60cf1d8f0e1dbU,
  0xefeee50be801d6eaU, 0xfec307b3ebe5f623U, 0x1de9ef0627a7f90bU, 0xc6c503f9bbd8f0e2U,
  0x10e0322e60ded06U, 0x6ff00e3d6eafe18U, 0xdf5ee0640b5ec07U, 0xe2e30ae7ece5dce6U,
  0x2602eb08ea1808d9U, 0xd102ec8f0ff88e04U, 0xf881e112fba71eefU, 0x432ff6fdf82d07eeU,
  0xe3f9ee32e6fcf1f0U, 0xddf02da31706b51aU, 0xd5c2f11c09d7e5edU, 0xdb03f406fc1312f5U,
  0xb9ed092ae7f2181bU, 0xe3e1f4d41107b905U, 0xfbf0e91be8e6df05U, 0xcfeee601d108f502U,
  0x31130f05f1de30e4U, 0xfcd7ecfced0b1f1dU, 0xecf80b241fcf1101U, 0x2d2dee0ef4f01b04U,
  0x10ea0f1feede371cU, 0x13f11a03e2311321U, 0xf91120202903ea0fU, 0x712f01cc3d521e5U,
  0x16ef02e4e8d9ed10U, 0x140fa28d5022110U, 0x3411518e210d73aU, 0xffdfe20c28e621ebU,
  0xe316120eedfa15feU, 0xed1a140e06f30e26U, 0x1f08cf1efb1f10f8U, 0x14080c0b1f16f70fU,
  0xfe1502d8f403f4eeU, 0xb45141dfb1f1528U, 0x2510f417d626ef21U, 0xea07fe0731fc00feU,
  0x5fee8f1fcd000U, 0xff3eea200002110aU, 0x111de81dc309ef13U, 0xed070505450a0deaU,
  0x2a32ed2af53f07c0U, 0xda29c034e1e6f8e2U, 0xb7f5f2f9c31aab90U, 0xe4e408df232dd221U,
  0x240be51bfc360c35U, 0xeac0f4c4f1ead727U, 0xf4ea001707fefad5U, 0xc4ef07f51a34d30aU,
  0xeb18c20b131ff4d3U, 0x190e16eef5f8e102U, 0xf7241411d916f221U, 0xd4bb01e9fef5e0efU,
  0xe1bb9500ddbe70bU, 0xebfeb49902f03023U, 0xcad0101e2fb5fac3U, 0xfeea14e9fb0be907U,
  0xc597c5f40904e767U, 0x273b1c04dbe91f26U, 0x1ee81518c0d8e662U, 0xd78d15fedeaded0dU,
  0xc6e081e9123affd1U, 0x2f6b3a231bd915caU, 0xd8141903f10ecb39U, 0xd5c101f74fd300bfU,
  0xef131131fcf511efU, 0xe801e9d90be90009U, 0x23f00016ebcffdfdU, 0x290f1401c3edfe13U,
  0xc2a0afc7f20ee1e9U, 0xc6afe0e08f72cddU, 0xda00f2dcfbd009U, 0xe7ef07df34f1f7d3U,
  0xe009d94b06f02544U, 0xff0601af40b7e3e2U, 0xce0707f8e6b418f1U, 0xc1ecfa020dddfe9cU,
  0x34e298be00a9dac2U, 0x90b2c38826f9b001U, 0xb58197d5bdcbc4c3U, 0xa0a15ceb9f5cb1fU,
  0xde8c2eef4d2dde2U, 0xa1427d407faba1bU, 0xd6cbd4e6fde002f9U, 0xf51404e8cee0e208U,
  0xfffce139e7111d33U, 0xfc27e7ed27f99b09U, 0x1502cee20dd9230aU, 0x1a1b04e9eeebea06U,
  0x2bd6dbca07ed0ad4U, 0xdbe8bce4e70b3bfeU, 0xb5dee4ec1a15d8dcU, 0xb0600f2e3d90007U,
  0x1febf114fb041206U, 0x1a2330e7df133313U, 0xe61b32f53915110eU, 0xfe19df05fdc917f0U,
  0xe7240527eff72b1eU, 0x1122180af2053814U, 0x113e34fa090d262fU, 0x916e00401da19e2U,
  0xfceff200ebec210aU, 0xecfcb70ef3090412U, 0xe5e5ebe6290b0d11U, 0xf0090108e2e9f21dU,
  0xdfa200af2e42623U, 0x2c142cf9e5180c14U, 0xb112df623000624U, 0xf716df17fbcf0ff2U,
  0xdb0f330af801131bU, 0x1f1908fdd2170116U, 0x132528fff9f01b34U, 0xf6e5e410fdc305e8U,
  0x160de806dfa0fdf9U, 0xe402fdf305ec1ed5U, 0xedc2c4eff4f6bbe2U, 0xdfa03f8161ee729U,
  0xaf2e6f4ebcc04ebU, 0x131806fbefe724efU, 0xf6e1e0ecf4fc97e7U, 0x241bef052111090eU,
  0xf1ecebf6e5d21809U, 0xe21324f816f317d7U, 0x1af3e8e9040deefcU, 0x1018fe19f9feffe2U,
  0x2a04e402e4d5d6d6U, 0xebebf5e8e1f0c5ffU, 0x5c4cce704a6a70bU, 0xf2e000fefe17f937U,
  0x220fe50be30c10cdU, 0x10fbe4e1e2f2d8eaU, 0xdad7f4efe5b699e7U, 0x160cfd0e2224143fU,
  0x22c9e410e10d1609U, 0xd11b10d5f6f2c9e4U, 0xf0d4e5ee0bcca5feU, 0x2614fa0af80604f8U,
  0x36fb0efdf0f6e6f0U, 0xe3d3f5f8ece5ca01U, 0xcc1c0e3ddd9af20U, 0xede40afef619dd3eU,
  0xb090108f21df9faU, 0x1ae3d5f3ceecd7faU, 0xfdd6e8f6bce581e8U, 0x7daf915100f0132U,
  0x23ebecfae22af21aU, 0xe114f2feeaebb4ebU, 0xbd1ea020107b3f7U, 0x30c020e1607f30aU,
  0xeae6eef8f212e507U, 0x1c2ff32bec08020dU, 0x140efe0ee9102d34U, 0xece9fa03f9e10715U,
  0xe8f6d7ff090ff1baU, 0xa0eef09ddfcfaf5U, 0xd70d0a02ec110902U, 0xd8d8fd0efef9f900U,
  0xdbeef9090e0ef1eeU, 0xfb0df41a010908fcU, 0x11dfb1beb122817U, 0x7fefb0901f50903U,
  0xf807ddfaff100e03U, 0xd121008d81328feU, 0x6df0f1209f6d6fdU, 0x2f10a0200d4060dU,
  0xf40fcf05123adf97U, 0xf6d60ac7b5ff0eedU, 0xdcea140a10d0b1cdU, 0xdcc9fa01f2e802f8U,
  0xe804f50806fdf1e9U, 0xddeaf0e1ea0a02e2U, 0xec0d0d1b160a0cddU, 0xfb0b0d17f0ffffe8U,
  0xfcf8c8ec002a24e1U, 0x2fd05d9d31204ecU, 0xed00106f8cbb603U, 0xf6fafe0c00dd05eeU,
  0x14b0e9ff13cb81U, 0xe5b60089c3ffe0edU, 0xbbe2030e15c5abe1U, 0xa6d20214ced9fef7U,
  0xe717ecfb03e3f603U, 0xd7db03b9f3f7d5e9U, 0xee09fe11130b16d9U, 0xd9fe0125daf409eeU,
  0xee30b1d22df1418U, 0x15e121f1d9fa0036U, 0x231c2f1b2ee7e6dfU, 0xe82102f2041f1107U,
  0x15d20dea38b65346U, 0x5aefa0ad8020b3dU, 0xd3c2820c9fdd9edU, 0x1733011bc808081bU,
  0x1805dafa36de2af3U, 0x29e190ecbf3f609U, 0x1219351bc831230fU, 0x21f1040abcf61212U,
  0xd8e62ae71818c316U, 0xff18182eb60fdaffU, 0x11440a10e937f321U, 0x8b701efe6dc1030U,
  0xd7f8d8cf3604d9bdU, 0xe022eb47c913e8bbU, 0xac0d0215c04eb2deU, 0xcd8111ff1df10c09U,
  0xfbd116f034f807eeU, 0xdf0ff91bf8f6bfa7U, 0xbdeb1907e228fad7U, 0xf7eb13f61af00fd2U,
  0xd3ffee0426cdeadcU, 0x253624dddc0e3bc8U, 0x33f52c110deeaa14U, 0xe4210e01f7fb18fcU,
  0xf533ee33288f071cU, 0x16d713b9d91103d4U, 0xf3c02c24f1b9cde2U, 0xcfee0cfb03e82cf7U,
  0xd812fb0c24d4fd11U, 0x2ddcf1c2def82223U, 0xf8d72116eece0f06U, 0x9f60b02ecc40f04U,
  0xfb4dc80202ada2ddU, 0x9f81c62f0ed0d701U, 0xcaba81fcae301febU, 0xc4cc1afcec32b40cU,
  0x431b70ff6d7b8dfU, 0xf8e03df9f7ecea00U, 0xfbf8ce0502e31f07U, 0x29e5050aef00eb0cU,
  0xaf0d511fdefdfebU, 0xf1dd14b7fac2ff06U, 0xffdabffad3abf61dU, 0xf6d512fedbf2d72fU,
  0x1019e80b0cf34129U, 0xe982f5f506ed33faU, 0x25c0b0e5fb24e3f0U, 0xd32319ffe725ee09U,
  0x81d224c061d0220U, 0x19dc63bee21e3301U, 0x161be939de2211U, 0xe6d0fb15dcec1600U,
  0xf061e18050ceff6U, 0x32207f9bef03a08U, 0xe1509f3fbdad51cU, 0x13cb0bf732ec1b14U,
  0xb1ffd0cd7594bU, 0xe2dbe169fcd9e408U, 0x1df4abebf31dec03U, 0x2ffa070beffd0413U,
  0xe3f30e381af62520U, 0x27242e17d2fb0502U, 0x32511f708f5ed22U, 0x1dc3fc1608ea3324U,
  0xe31822fd0e0ac4f2U, 0x1f2bd409cce60204U, 0xef2eefead405c9f4U, 0x14e516104af7231cU,
  0xbff100607f0fbfdU, 0xd9cc01db0afcc6efU, 0xf4d5e6fa0fe2fbe3U, 0xe1fe041f050800d0U,
  0x1031b0e10effd16U, 0xe0b203cf0efcdb19U, 0x500e90202e107f6U, 0xd6020b18abeafcf1U,
  0x30e311ec0df4f510U, 0xee0209f50a00d813U, 0x19d1d3f614e00218U, 0xfd0e0f0fbbddecf6U,
  0x2fbfa030c03e60eU, 0x7d300f506fe0627U, 0x607eefdf30111ffU, 0xb2c90c20f8e904eaU,
  0xd010cf010f4dc03U, 0x4f3f90bed031130U, 0xfe18f202ec091624U, 0xc7c8080fcfb903fbU,
  0xecf9dbdb06f7b2bdU, 0xfd140f0ee5fa031cU, 0xf2fbe5f7ef0ee41aU, 0xfcd6060aedd701feU,
  0xd70ff61107e008f1U, 0xf8e621fd04fd2c07U, 0xe506fc0bcd0f15faU, 0xe4f8071dfd0611e8U,
  0xe30ef7fb09d90981U, 0xed0d0d10fb051df1U, 0xc82700fbcf12f903U, 0xe8060d17000612eaU,
  0xf426f8eb0304e3a8U, 0xda241c1ff30206d5U, 0xc602e6fefb10e5efU, 0xedfefd141223fff0U,
  0x4bb2db8d52ae1e9U, 0x4e20fc17ea0a24f1U, 0x20fdebf0f6ddc0fdU, 0x2303effdecd9d44eU,
  0x45f4daf5c7c4bf07U, 0xcf20f613f9061eefU, 0x2835e1eb030543e2U, 0xfdf2f51110efda32U,
  0x1ceed309daf19607U, 0xc40ca1effe72ebbU, 0x2dd9d7fb210b3c09U, 0xc2bbfaffffdacc15U,
  0xc494179be610dffdU, 0x4206d606d1f636cbU, 0x3dadddeee3c4bef6U, 0x1203fb06fae1ea2cU,
  0xeca92db6c001e12fU, 0xf2e1adbee3f835d5U, 0x77e1eef9c1b3fd25U, 0xeaf8f005f0e8ed22U,
  0x22d200f9caf8e71aU, 0xf169edee4f125caU, 0x5ab6e310eee6fd0eU, 0xf112f909eceed81cU,
  0x23b001c2d892ccecU, 0x2df4ec05d8fcd3d6U, 0xe70ae5e5fadc01f0U, 0xef4f303e5d8fd1eU,
  0xd288aa85c49ea8d8U, 0x1ce3c9f2dbfbc5ccU, 0x26f5dfe8c1baf838U, 0xabbced0597a8091fU,
  0xd1bc09e2ddf081f2U, 0x11089e02b8048fdaU, 0x2ac7ed09bfc8004aU, 0xeebafdf78ec6fe0dU,
  0xe120f5331ce1381aU, 0xca810cf9f6fe0cd4U, 0xb91ffa0a38c20fb7U, 0xdfbdf7fcbb06e437U,
  0x15300c5a1a1907efU, 0xd93418fed01115fdU, 0xbc511404f0c7cfb3U, 0x3dfdf3fa4b320c4aU,
  0xffe7d3ee2309cfe5U, 0xa2b15edee37f5ebU, 0x614150d9cf7dc19U, 0x1bf006f34b1511eeU,
  0xb13ce21512d9e9f5U, 0xfccffe2edef301f0U, 0xdd07faf1ae4627c4U, 0xc5d3ea18edfed006U,
  0xf12f1304122e8ef6U, 0x22d2c1ed308f110U, 0x9ff912f3d22eddc9U, 0xffcdfb0b3404f81cU,
  0xcfd2e6de2d449803U, 0x191930e5f10febffU, 0x8d51407e00be022U, 0xced706fb2a0508e4U,
  0xcbe6fea6ffc73bfbU, 0x16cf20e210f1ef09U, 0x2d120301de19d617U, 0xd62dfa18d7f3f89dU,
  0xe2ee12c414f41b29U, 0xfdea0cec011b0d1dU, 0xf6021401eb25c815U, 0xbb080921fcec15d2U,
  0xf8b3f3de20dc084aU, 0x24d52bba0c192011U, 0x24101ffceada0a39U, 0xb30e1404d8d518bdU,
  0x1cad1fd6f10df409U, 0x18181a06dd0e174cU, 0x1efa11fa11112033U, 0xf7efec37e0d716e7U,
  0xf9bb04afe6f1d4f3U, 0x715f900c90c1a27U, 0x2000f6f9ececc91fU, 0xf10dd25e1d91de1U,
  0x19ece5f0df26fdbeU, 0x62bff15d1f410f5U, 0xf2130b0708ebc4feU, 0x1c04dd2e0a0223eaU,
  0x15cce4b2f5e5bee2U, 0x20021507cf0a1f3eU, 0x1b130cffddfb1924U, 0xead5e823f1e90cf3U,
  0xecd8a4daec04dda1U, 0xdd0efc00d80a03ecU, 0xf8eff9f3d4e7a004U, 0xdedbe82804f723e7U,
  0xb8f2f728e61910edU, 0xdb210ffdcefe1ca0U, 0xcbdf060afae081b7U, 0xccf6e4281a050eeaU,
  0xe824fc0df71b10d1U, 0x1fea1402cc1a16ffU, 0xff101300c5eb0ef0U, 0x240df125120e2bdeU,
  0xf70dde08e0d5241eU, 0xebf5f9f5d524f2a5U, 0xe5f20d01eae8ded7U, 0x403e83b17fe290fU,
  0xbf27111ceae00639U, 0xf2e02a08c31614c5U, 0xf1041d0efb0bf9eaU, 0xf3f3e32705dd2919U,
  0x40d31bcefdc3590cU, 0xe5dd36ffe405c3d7U, 0xac4f9f123f4ded5U, 0x246a07ebd1f21901U,
  0x49c600e6f2c652afU, 0xecdb18810703ede0U, 0xe90cf405e1e408c9U, 0xf73dfa05cf111db9U,
  0xe9fed910f7cfe0f3U, 0xfef7f2f8dd0c0f17U, 0x806fbfefbfc4334U, 0xc8de08f5b6d319caU,
  0xbd521008f702c9f2U, 0xecdff132e20b2103U, 0xe636fee5ee4846c8U, 0x3e1fe03fbfc1639U,
  0x803f308e7dd07fdU, 0xa110e0addfe05f8U, 0xe4d8f0ffd1cefde2U, 0x6119e9ef0303ff33U,
  0xcdfab2eefb4d8f6U, 0xed14e2d5dbfa070cU, 0xdd19f3fcf7be0c05U, 0xecbe04160cf208ffU,
  0xd3faf0d8f80b08f6U, 0xffdce6fd13fc05f7U, 0x6e3301f7e017ed04U, 0xdaf4110dd1f708eaU,
  0xc810cdecf60ead15U, 0x917fc0ae4041cf3U, 0xaee0bf7fdf8f7f1U, 0xe3c503032c04f510U,
  0xc6f0d00bede0ce11U, 0x31ee6d2eb0e0e28U, 0x80105090ce6ef05U, 0xdcd80406581c120eU,
  0xd9eeb00afbe7df23U, 0x72afc060ffdfaf2U, 0x17e5ef04d814f827U, 0xe2e007f2f8e302fbU,
  0xdaf8dc0bf8be0c10U, 0xd3fb07f7ebf8d5cdU, 0xffdbe9081af1f80fU, 0xbae3feea03dff6f2U,
  0x18eb0905ecc33121U, 0xd1b8ff0c09f3ecd2U, 0xfb04e303f4eeede5U, 0xe11404f6fbf5f422U,
  0xe8eb0905ff13e2e9U, 0x3554dcf4fafa0ce1U, 0x20d901fd0200fd26U, 0x100cfb1eecffd8U,
  0xe834f25afed2e126U, 0xd7031be3f3ea28c8U, 0xc2fafcfe0ce236e7U, 0x95d0faefddf8fff7U,
  0xdf1b1a11f7ef540aU, 0xd581f202edfb14eeU, 0xd42beafdebc6f3a3U, 0xfe1ef9e4fb13f64bU,
  0xfbed240806f528eeU, 0x81dc3f41101e6c7U, 0x10cdfff4c8020909U, 0x3008e3e3dcebe6U,
  0xec2e012402cb0cfdU, 0xebd618f40b09f4e5U, 0xde0bf0ff12021cdfU, 0x10b0fe6b80e0204U,
  0xdf45440bf308ebf6U, 0xf3d5fc23ef011ef1U, 0xe82ee1f7d240f2bdU, 0xf4e80ada2521f040U,
  0xfa04df09ff25f9f6U, 0x605ed06e90d11fcU, 0xcee01f5f7eb0a04U, 0x10f3f2f9fc08f007U,
  0xf003d503fc0207d9U, 0xf207f603da060cf9U, 0xdf1a11fcf6f5d3deU, 0xdfee5fd0e0df110U,
  0x9f2e9dff0f3e0d6U, 0xc1f20f02e6e40df0U, 0xd1d3dff6ddf281cfU, 0xf1ddfef80623d50fU,
  0xe701def209f4defeU, 0x8160406e9161b06U, 0x4f10bfcf8120d13U, 0xf5eaf7040afcfc09U,
  0xa14020cfc1315f5U, 0xfcfdfbf4e00607fcU, 0xf1121b0cfdfdf2e8U, 0x117e906170df70dU,
  0xfbf509fff3e20af8U, 0xe5d80bdfebf10904U, 0xebd9f0f9ebf0c5e3U, 0xf403fffff912e513U,
  0xdafdf6f500e8e9feU, 0x18fe08eef907180aU, 0x100b1202eafc1e0fU, 0xddedfbfffaeb0e05U,
  0xfa1a020efaf9041eU, 0x4fce10bed070316U, 0x131e14fe01fb211eU, 0x150ef408fd020712U,
  0xe0ef0f1f4d014fdU, 0xf204011efff1fd00U, 0xcf4e9edfc22ff05U, 0x1b0cfcfb0618f11cU,
  0xf024f20015f9ff1bU, 0xe82e0d401920ebe6U, 0xc003f9fff9320c03U, 0x1f1613e12f2200f8U,
  0xc01324d427f01309U, 0x829cb231f17ce01U, 0xb0e5f5070026f604U, 0xcb0c07fa1f1518d4U,
  0xab14e5f126eaf4edU, 0x816f3172f11daf9U, 0xd1f60401e31303fcU, 0xc71812f7f61308d0U,
  0xdef7cec925fbe9f7U, 0xea2402134a31be0cU, 0xb0e0f515f93f070dU, 0x91014fd161012edU,
  0xdfd1aea023e3ffe1U, 0xf20aded2230baefcU, 0xb2d7e90cd52ce21aU, 0xaf00ffefe5f9ffd5U,
  0xe5db99d11fe8d0f2U, 0xe0dc8c53c1bd2fdU, 0xcacfe910f726e80cU, 0x9f0411f8d2ebf1e6U,
  0xf2bbcbd02d062003U, 0xd8f812d64b44c710U, 0x81ebfe10f33dfd0cU, 0xd70817eb03fb08f1U,
  0xe09fc1a42906fffcU, 0xfdd9e9c8411ace06U, 0xa7de0011c635d42fU, 0x98220cf3adc020e5U,
  0xd1b2b5c02ce818f5U, 0x515c9ee3928cdffU, 0xb6d30819f0fde73dU, 0xde2404eab9d11bdeU,
  0xed42fce0e1b17daU, 0xa227ed0f16ee14b1U, 0xead1d30334f194f6U, 0xfa1a07e80be4eff4U,
  0xdf1a100f0b0df7ddU, 0x34ee3afc1e0510bbU, 0x181cfcfe0715f51fU, 0xd9ebec01cde70ac3U,
  0xea0a0ef111faa833U, 0x19e82c1b1bf107fcU, 0x5703f51a10313057U, 0xd7e4e30df4e8f5ccU,
  0x34d9f40119e315e8U, 0xb9e5dfc20fee06c7U, 0xc98ed202fdad9dcdU, 0x1532f7e523f0ec2cU,
  0xf7f1de0b0d0f21beU, 0x16ff45811f132cbfU, 0xdcfe09faf1daf4fcU, 0xa1eda0104e3f9beU,
  0xe3feebfa0dd20506U, 0x17d439d91a0f0df8U, 0x2903031730f02d48U, 0xfe12e0f5a6dd06afU,
  0xec24c32e1dd0cfe6U, 0xd5dad1e8cceee8e0U, 0xe6b7d8f9b5b5ced1U, 0x4faf8d01801db75U,
  0xd5fcf93004ce3400U, 0x15f9f7bf0016cdceU, 0xcfe5040ae692d4b5U, 0x1f33d8de390a082bU,
  0xce220c420abf360eU, 0x24c405d50e0abf03U, 0xffe700003ac81505U, 0x3710e4f5e111f008U,
  0x341f534dce302fcU, 0xe801c506a612ffefU, 0x33d92907f9de2acfU, 0x21000c121d282ddcU,
  0xf9e40b12e5f2f4f7U, 0xdcfbe0f5b51408d9U, 0x1525230d0dece7d0U, 0x2e070409170115cbU,
  0x1fd7f8ecdcbefcf6U, 0xdd04bff4e22802c6U, 0x1cd9fd0ee6f8cdcaU, 0xaf7ff08031a05c2U,
  0xee0623fae2db0d17U, 0x2ce4d4e4bc16193eU, 0x570f33121ad6330cU, 0x2f05f40cecf317e3U,
  0x1d217dcebd60c0dU, 0x2ada08e0b4222328U, 0x484527101bc703f7U, 0xeafdf916ecce22d3U,
  0xec9c17c6e7caf32dU, 0x150ff5bfbe091531U, 0x4df20e123ca6cf0aU, 0x9edf10ee3d210ecU,
  0xd519f4fbf7d8c1eaU, 0x141bd554f9f11f2eU, 0xe8e2f902dc3e24ebU, 0x1a971404233efbf2U,
  0xe10712daf4dc92ecU, 0xfeec1916c805e833U, 0xd25f10db7152005U, 0xcd81feee11fbf1ddU,
  0xb8d6ead9f6d1b3d5U, 0xf218f80de8f9f23eU, 0xf7f2e70af6f1d508U, 0xe7ca060207faf1f6U,
  0xdb7fcf1f5f4effdU, 0xdef00cda21131507U, 0x90df90420f50916U, 0xafea00fcfee80bcbU,
  0xfadc2022eddd1b5bU, 0x19ee04cff2021a24U, 0x2d3a171302d92538U, 0xf9d803f6b7cf06e5U,
  0x606f2eadcebfcdcU, 0xd21e94ceee52b0eU, 0xf5ece01ec321dc15U, 0xf7d3f8eb2103f60eU,
  0x1405212004e12917U, 0x20f42bde0502ea21U, 0x294dfd07f4dd3621U, 0xcc0af712d7e706ebU,
  0xf6020e09f31a1b00U, 0x2b530324b7080615U, 0x31371f0fd3f01622U, 0x2410f30617e90d0aU,
  0x71504e5fdf5f781U, 0x8470c1a0cf9f5e6U, 0xbfe0f515010fb6c2U, 0xe7090d0e5b37fbfbU,
  0xf70ffe23fed2f2f4U, 0xfdf4f505f1ebf737U, 0x2e00e103d9e21f0fU, 0xfeecf50df310e319U,
  0x2e0ebfde11e3d2bdU, 0x191fb730d8f70ce1U, 0xef0cde02acf0d9e6U, 0xf07060a1d14fc1eU,
  0x131bcc0c08b4f4e6U, 0xb1e7c8f20de4dae9U, 0xb6c4b524e6dbd1acU, 0x9000df4061df417U,
  0xab13034412062212U, 0xe4010b2ef8ffdae6U, 0xe3f5f0f718e1ea16U, 0xe5f31ff2f416f800U,
  0x23ebf1311819540fU, 0x5dae9fafd01f601U, 0xc7fbee050dcffdc1U, 0x381719f3e108f648U,
  0x5aa1f9fa09d82c04U, 0xce09ee99fcd2d4e1U, 0xddb8d4f81fa4c8d7U, 0x1c1b24d8eb0afb24U,
  0xa35e0c260b0201eeU, 0x19fadfe5e6010307U, 0x1a161c0fd9f52a05U, 0x9a111505f8f715e0U,
  0xb86429380e110efaU, 0xbc1cf14bb1d2637U, 0x9b1d0bf2e70524afU, 0x2328f6fffdef0e41U,
  0x10261816f0175515U, 0xfdbbc615b7e9111fU, 0xcf2c02fed9c9f1b6U, 0x122012f2f5e2ff50U,
  0xf811b7df11fcd8ebU, 0xbf8e5c12aceb0d4U, 0x5d3fccfbd6f91956U, 0xcd102708ace6f1c2U,
  0xc11dbee109f9c9edU, 0xfd9accf0f9f12816U, 0x2a12e3faf526272aU, 0xb3ea220381e2f40fU,
  0xfd4404e3fdfab903U, 0xdcc8ce1803cd391cU, 0x1b26c908f54111f7U, 0xac9f19e1fcf7d443U,
  0xdf209ea28fa12fbU, 0xecfddffcf7f90a08U, 0xe2f7e3f7b40702dbU, 0x41411e601e4f6daU,
  0x1a0310001a38102eU, 0xee7f80dfc0a0209U, 0x9020103f70c1afaU, 0xd40b0fe1e5c913d3U,
  0x1408fb171b17071cU, 0x19020d0fd814f305U, 0xf909080dfa121900U, 0xd8f717e0beb104d5U,
  0x28cc10d120ede739U, 0x24edec11f501150dU, 0xa03f6f5f024112bU, 0xe1f40be7f2bb0bd9U,
  0x14d507cb2011f625U, 0x23fdf80ddf0c1310U, 0x270917fc12140a44U, 0xdddf1ae0d5811fccU,
  0x1fe3e1c00dfadde9U, 0x612f21cd2040d02U, 0x61111fa0133ff26U, 0xcff20be7f0b514dcU,
  0x7bff7e121e4eae6U, 0xf404d20cfcf91611U, 0xcdfafbf5dd1709ffU, 0xc5d209fbe4b80ce5U,
  0xbb4f3d525c3f6c6U, 0x1124ef1ce01407ffU, 0xe2ff0afe1528160cU, 0xdb0014f1f3ad19cfU,
  0x16e1eefb1d172306U, 0x600d80df607feffU, 0xf7ff0dfcff153104U, 0xf91c16f0e6bb19d4U,
  0xeb04030bedc60afdU, 0x6e401fb6fcaf726U, 0xbcaa2cdfe0ed40fU, 0xea05edf1d733d527U,
  0x1f81903f1d1f50aU, 0xc0f7d30c6ac4ea1dU, 0xf1eb9fcc0d04e4f1U, 0xe1e9f0ee0a3fda31U,
  0xfee7f8f1eee9fc05U, 0xa2e3bc054fcaf81dU, 0xe8eda5dcc9f0e9ebU, 0x1100eeee013fd82bU,
  0xeef21ce9f1acd4fbU, 0x9f512de6fc60120U, 0xd1a5cbf2e4d717U, 0xe6fbf8ebd114d721U,
  0xe6f7fbf7ead5d61eU, 0xfae4d3d065d10425U, 0x1aed9fccc7e3fd13U, 0xe4eaf8fce029de30U,
  0xb00f50df3f8f81bU, 0xe503bbf762dcfe23U, 0x6dca0d9c4eeffedU, 0x230afcf60c35e62bU,
  0x14f5fcd1eee4fa08U, 0xfdf52cdd7cce0720U, 0x15baa7cb0feedf27U, 0xe203edf1da01d038U,
  0x50c1100e000f9ebU, 0xfeefeef87fc90129U, 0xff1cb1c6c2060d0cU, 0xef0af3fbf522c430U,
  0x22171324df09201bU, 0xe6d7ce077edef50dU, 0xfde59ce0c41d40edU, 0x31eee01fa22c622U,
  0x11f240050cc51e1eU, 0xf3ccfffbd80bd624U, 0x13f7feee0d9d27f1U, 0xf7e30d35cae11121U,
  0xfdf829ef15110af0U, 0x4f4fad4d41df4fbU, 0xffd50fe4e581b3d1U, 0x20050b200eee1c2dU,
  0x5d0dfd10beb08c3U, 0xf9010cb40306c1d0U, 0x25d90beea0e60f1dU, 0x1607192be9ec0fd6U,
  0x1702f7fd14f5fbe4U, 0xf9d810fdb50d2632U, 0xf81f1bf6f2bde8bbU, 0xee990a21f4f3f41bU,
  0x828d60e1526cca6U, 0x10604ff9b193218U, 0xe2092af601eab1b6U, 0x2eeb063810fe0a27U,
  0x1edbb4cf1532d99fU, 0x2508f1ee1c1febU, 0xf5eb2101e716b0f8U, 0x70d1e2b19f109ffU,
  0xeb0101ff03ffc5d8U, 0xf8fe021bb505172dU, 0x1d061ef006fb03dfU, 0xf4ac13231dfdfb2cU,
  0x1917d0cd0e3c949fU, 0x11170b15b2131024U, 0x13f42d00f525d9d7U, 0x1fe7073025070710U,
  0xfcd5cdbf1830c4faU, 0xfb1a1f0df50feaf9U, 0x2dd12af1eb28fc13U, 0xdaf90f240fe600eeU,
  0xf407f916ff0afbf9U, 0xf7eff50ddf160915U, 0x101ee00003c11b00U, 0x4c11500ced9f238U,
  0xfe1d191afdfaeaccU, 0xf81410fdc2f8fbf5U, 0xf807e40e0200b5d0U, 0x24ec11f30cfce643U,
  0x1f3123ffffc2ead9U, 0xf41e071be30a00f8U, 0xe610d9120527e8f0U, 0x9021ce52b0fe620U,
  0xc0dcb1bedcff8e6U, 0xe5fae1f7d5030d0dU, 0xf106de0beff50cd1U, 0x9c611f90aefee2fU,
  0x623e401f6d4a281U, 0xda1e08fec3fd170dU, 0xbfebd405e90dd5b3U, 0x1ff110fa1512ed2aU,
  0x180b32f2fbed0bebU, 0xe6080106fded19f6U, 0xcae4cd060723e7e0U, 0x10c1efffe0ae101U,
  0xfe06f9ecf4bccdfdU, 0x927ec0cee0ed514U, 0xefe7d00dd22a1ccbU, 0x151a140412dfea0dU,
  0xf1e8faacf6d2e2d9U, 0xe711ed1a16fec909U, 0xbcc7cc04f23adeecU, 0x10d13f70de6f5e3U,
  0x1be50af0f9d81c24U, 0xe8fcd40326e8e408U, 0xcbcdd80ef01e00f6U, 0xc6031deaf2ddfbd3U,
  0x201410e404ea09ecU, 0xfbebc405180cf80eU, 0x2ff99eecf32041aU, 0xef519d0cce7d131U,
  0x132f0b2b01fb0e0cU, 0x1306151511f2051bU, 0xeb0ab4f1fd0a4507U, 0x27f324d404ece12cU,
  0xe6f8eb0e05190efbU, 0xef25cffa10ee0510U, 0xd0edadf007fb19fcU, 0xdf023d00bdfd632U,
  0x162a00ff0008fef4U, 0xf31aac3a191cfa15U, 0xf10789f7e22ceff3U, 0x3e425cd27fbc02dU,
  0x144a207ffa2a2636U, 0x16fd26fe1ffe071fU, 0x411ba03000861f3U, 0x24f717d32901db36U,
  0x131e2c3cf7492bfeU, 0x1239c71809f3ff01U, 0xef0eb1f7f3f526edU, 0x2f281fd33701d321U,
  0xe603fd320b0cf125U, 0xdceda6e327f2fa18U, 0xfccf83f8cdf2dafeU, 0xc2d41fccf1f0e120U,
  0xfe0c123f081ff918U, 0xc0e20e5f902f518U, 0xfe7aafcece516faU, 0x1d823ca0df2ec2eU,
  0x1f210e030ee4bbcdU, 0xf814c22007e7dcfeU, 0xed14a2f1e912fee4U, 0x13021cd40d06d715U,
  0x23dffffff86U, 0xafffffd96U, 0xfffffe4d0000035eU, 0x29efffffe75U,
  0xe9000000a9U, 0xfd00000142U, 0x13efffffcc9U, 0x210ffffff06U,
  0x32e00000269U, 0x7afffffeaaU, 0xc6fffffefcU, 0xfffffdf70000023bU,
  0xfffffe0600000371U, 0xffffffb000000449U, 0x180ffffff02U, 0x252fffffec1U,
  0xfffffb8100000074U, 0x274000002ccU, 0x1a000000f5U, 0xffffffd3000002f0U,
  0x3200000017aU, 0xffffff2300000259U, 0xb8000000bcU, 0xffffffbf00000157U,
  0x236fffffcd1U, 0xffffff220000004fU, 0x20bffffffcdU, 0x92fffffe57U,
  0xa2000002c1U, 0x4500000120U, 0x15dfffff98aU, 0xfffffa9cfffffc50U,
  0x1ee0de0632fce825U, 0x2706030e2e1e000eU, 0xf327f715f7f00b21U, 0xe40306e9e527ea16U,
  0xfbf221fc1e0217f5U, 0x908e7edf831df04U, 0x2ae5ff2ff8dbffe8U, 0xf3fdf9ffe7fbfe0fU,
  0x3cf9fd030ccbf4ddU, 0x1bcc18f10922f2e9U, 0xd2d90400cef2d0cfU, 0xe1a100deff42812U,
  0x15e416ba0a103efaU, 0x10e8e53be3f0f8feU, 0xbfeb04f803dc2cd7U, 0xe2fdfe11e51e0cfaU,
  0x27fadc0201eeeef4U, 0x91822ddd7210bedU, 0xe4ed1a1bee1423e2U, 0xf91ae84ae6f9061aU,
  0xee3df3fa0b11f1eaU, 0x11fe06f9d509f00eU, 0xd1071afa400f00cbU, 0xebee09e6f43ce9daU,
  0x11f1b3051e2ef72eU, 0xc5f91116eabf10f0U, 0xf117d3b006df0e04U, 0x11d003c49916d817U,
  0xe250e1af8c9f9dfU, 0x13d4f6f90d0d0208U, 0xb1c04f3080825e4U, 0xd7dc1931e000f903U,
  0x16dd3309c4e3b9e3U, 0xd7fee9e4f4f924f7U, 0xbfff0dfef1ebbf8U, 0xe706f11506d630d7U,
  0xc32616f7084213U, 0x1ed02b5cff0d04deU, 0x1b2022dac738d6eaU, 0xc7afe11ff3d82fd7U,
  0x35ebfc0aedece0ecU, 0xcffdc83d21161be1U, 0x620ddef3f6eb6afeU, 0xfb0e22490af91f29U,
  0xecdc3b1cf2fd1bf5U, 0x2538c818df05fd09U, 0x1005e71981f1e0f0U, 0xf502ddce0ce61bb3U,
  0x22dff0e41b28220eU, 0xdff7d912c900ebf0U, 0x20ff1b022deaff9U, 0xd508ffdccf0e0a08U,
  0xff0dfae3f312dedaU, 0xd5e9e5101cf5eee6U, 0x11f902ffce0f06fbU, 0xd1f2161af206ce03U,
  0xff5df151009f7cbU, 0xc3000f0219fadbefU, 0xfdff8db220ba0daU, 0xf8e7e0c536caebe1U,
  0xdffcf1f6baf4f904U, 0xdbc50920160aec25U, 0x102010d71b2ef80cU, 0xd9d0fb08f010f216U,
  0x22f0e00af61edfe3U, 0xccdc080c23cf2cd2U, 0x1df5d7e8cabb2ed6U, 0x3d508edfb130207U,
  0xd5a0fe32d7d6f8f6U, 0x43deeb021e20004bU, 0xe51a15ece4192404U, 0xe7da06a51ad82a35U,
  0xbfeeef1d1ea21e1U, 0xe7eafbee01d81606U, 0xd01901ed080b1815U, 0x2313fc1df908f7fdU,
  0x205ca1102f13206U, 0xe0f424dfdaf01713U, 0xebdcfe1e16ec0f14U, 0xeaf5e7b5fafaf41cU,
  0xf2dddeeffa000cdfU, 0x1203e1ff14141a03U, 0xf4f6f1033c02fff1U, 0x14fd031e2506fe1eU,
  0x21f80cfde60d0a1fU, 0x181f0305faee0310U, 0xe1dae514e8131226U, 0xe4280c1303f5fe1dU,
  0x3f7011c14eddfecU, 0xcff1c07f806ed35U, 0xed0afdf12818ed16U, 0xf60aee04f0dc0315U,
  0x14e21af0f01eec10U, 0x303f9f101f0e7f9U, 0x6ca19fef7f123d2U, 0x2f9040fe912140bU,
  0xfe803cdc4df160bU, 0xb609b405e42f1e05U, 0xa06100a12de2afcU, 0xca091a4f250340e5U,
  0xf21b07080cf61b09U, 0xe8c8112ff0ebfff6U, 0x5d9e003f306eef7U, 0xebe7deccd8e2eef6U,
  0xccd9b3cff7e5ccebU, 0xe7d5f8e3f308ead3U, 0xeacafac930ce0015U, 0x14f00f01fa02fefeU,
  0xe40bf3fded0a1bf0U, 0xc6e20be9e1c3ffefU, 0xefc4dbfedde6fc05U, 0xd2e1caf9edfbcdfbU,
  0xeb1be30a181c13c9U, 0x10ce05f3f428ef19U, 0xcbf313fb1b038125U, 0xece411ecefc30d19U,
  0xef404f8021fe70cU, 0x7f1fdf0e6eed0ddU, 0x1f40ee3e70f14f2U, 0xf1f22514d1ff08faU,
  0x1c101c0df40e1516U, 0xc40810fcdd0c0ffbU, 0x180f070d17180d02U, 0xdc0d10e937353d00U,
  0xf81df9dde3f512dbU, 0x203c8101832e227U, 0x31e9f7f51600d9eaU, 0xfe04fedee8dfc926U,
  0xf105dd04fb211901U, 0xd5e80600f3fee300U, 0xe3d515d7c1fedc0cU, 0xee0403e3db10e2f6U,
  0x1afc1dd9dd050400U, 0xdb01fc0c00ef041aU, 0x6dfe7fee50bf6faU, 0x20f1df1fc0016e8U,
  0x111cdefa12f20917U, 0xfde8faf4fe02f615U, 0xbef5fbfbe929e708U, 0xf9e3e7facc07e80bU,
  0x1425dc2fe606ede4U, 0xf0d72324fd08ebf8U, 0x506efd850ea26e8U, 0xf7fcffbfd11dfaecU,
  0xf30939bcfbb50ef2U, 0x1bf03430190e0d25U, 0x4014ed31fcd72c05U, 0x800ae3d11e0740aU,
  0xd909aa3a08d8040cU, 0xd9f20224d91cd835U, 0x292b170b23ed23c2U, 0xe318f1e4e600ec27U,
  0xfdc726f3f6ffed11U, 0xc7f6c2e5a9f53b04U, 0x2318d1dfc591f713U, 0x4d27141ee47fc9U,
  0xc9e84e9f1ce1310U, 0x3af8d0b8e9d30f03U, 0x2ae806b1c920f52aU, 0xbfcd1a39fcd9f90eU,
  0xf9f6be12b005fdeaU, 0xdcb7e0f1e6f0e6caU, 0xdb1d0108efa309c8U, 0xd31b2c1ffe17d301U,
  0xe111e535d518eaf3U, 0xc917cfe3e5e605c3U, 0xfef2fae717c4042bU, 0x8dfdb3d132ae6e3U,
  0xe1fcf6d4e1f4baebU, 0xdbe6fbd23ffcdda7U, 0x19f912d40c32fe0aU, 0xe9fe852703c902f1U,
  0xbe35cb19cdbecfdfU, 0x4403312bbfd725fbU, 0xf03cc63f13e9cac5U, 0xf2b1cddae8fb2ddaU,
  0xe48bd149fe0606f4U, 0xb3cee735aeda4323U, 0xee4af517e84319c6U, 0xc4b32d26cebdd729U,
  0x9aeffb35d9c00019U, 0x26b3fef6cceae5f1U, 0xbeec9022b48cae1U, 0xbfcc4936ccb6589dU,
  0xffa90810a8edb51eU, 0xdaaca247ed4bebf8U, 0x143fd50f0d031affU, 0x19103c401b2de912U,
  0xcdfa1934ea24f820U, 0xead44127e8dceec4U, 0x361dd7f6eae7eb34U, 0xf0f0eeeae010febbU,
  0x2cedf4dad4f10cedU, 0xed0ffd05093e3ff9U, 0xd5bae63a02e9e0f7U, 0x163ad9e720ab07f4U,
  0x1bf6f0f8f33a1e14U, 0xdbf4e5fce6d92603U, 0xf03925d106f22f0dU, 0xe0d9d5f5d307c71eU,
  0x15d9ec16a5f5b3c8U, 0x1815072d0b3d190dU, 0x19e4cd58f4e11d95U, 0x43121d1239ffe006U,
  0xd6cff3fdc500e8e1U, 0xe6f1c218e6c8f6daU, 0xdc0212b308e2360fU, 0xe7ee1bebd3cee200U,
  0xcb14cdfc1002b111U, 0xfbd4d7110914f2f0U, 0x131fb446dba012c6U, 0x7c4513d33703ebcaU,
  0xfae80e0f09a733bcU, 0x172002d8f42e1f33U, 0x23710e1e11241a4dU, 0xd0d9fc3935fae123U,
  0x60e4ede82ee1e420U, 0xdb2500fa27db11fdU, 0xb24f3eae0bf05d0U, 0xe222b018f913f5faU,
  0x2addfdf9182f0654U, 0x4a2bbc6008ef160fU, 0xf03e242fd70ffda1U, 0xe7141e18f0fa1423U,
  0x2fc8c9c62357a9e5U, 0xf52ebdd1f8cdfb32U, 0x101bf528f3c7e7e0U, 0x19ded405e60ff613U,
  0x17a4020d153eff04U, 0x29dcf958151c0016U, 0x1e0efcf5c81ecc92U, 0xd6032ccccaf023baU,
  0x27c8211f1c21e03cU, 0xe72424cacbcbc02bU, 0xc50cdf0f0205ef17U, 0x13d2fce6b7f8f9d1U,
  0xf7c2dc180d1006dbU, 0xfde5fe1c3c1ae8daU, 0x5912e1f5ed151ae2U, 0xdef410d3e4e5f1b7U,
  0x1ff1e7e4debed2dfU, 0xf905e02b2ceff6d2U, 0x31af819fbc7e6fcU, 0xf211ec2d19d600daU,
  0x13cd1ef4fd1daf1cU, 0x3517b525eb2cf103U, 0xf822f81ecc170fafU, 0xcdd5ff16d7f50c05U,
  0xe0ffb0df3e17818cU, 0x60defe00ad326f8U, 0x1f01fe0aacb3ca06U, 0xfe13d107e8c60d22U,
  0x3e9bfdf8ee48b6ffU, 0xbf7ba33ba1fdc3aU, 0xeee42603b6f30fb8U, 0xdbef17c2c60e0206U,
  0xe30ace0b372fb3dfU, 0x201e42fedcf40c12U, 0x5f51c07d9eba0f9U, 0xfb11bbbc1991ed1bU,
  0x1cb9de0ad318cb0fU, 0x34ee1af815e1e31aU, 0x2fed33c7ed364aeaU, 0xa6f93cddf4f7eff7U,
  0xce03dd0e1bc0d8dcU, 0xfd1e111503f3b6ddU, 0x2b15e513fa24eec2U, 0x26ebc41920de14e1U,
  0xd605f9fce8f2f7e4U, 0xf6fe1123fb27f32dU, 0xbef6ef32d7e000f3U, 0xe2efd71337f8e520U,
  0xeb15db0a39fd15caU, 0x51d170de9ee280dU, 0x160631afd5dce614U, 0xbee05eedfd1e60cU,
  0xefe051910ed0b1cU, 0x15d620151b21dd00U, 0x1e72f10cb000aeeU, 0x15d412f4160934f8U,
  0x311affd0c91b0ac1U, 0xe1afcf6d913dd18U, 0x1af64001220cbbf1U, 0xdb21b6292b963ff2U,
  0xec30e7dad5101c08U, 0xf0dd2165f8109edcU, 0x48120faff1dbfdf1U, 0xf21b25c5f600cc03U,
  0xf701c5f8120106f3U, 0xe50d04f713fae9c7U, 0x5e820ffcef6e7edU, 0x60aeb151ec1e1e4U,
  0x8ed0b08f51e1b0dU, 0x16fb280bf8e714f4U, 0xe8f6140b0009f600U, 0xe104c5ef071c16f3U,
  0x7d6ea0f30e9fdf0U, 0xde3a06f308c7f1a0U, 0x1eed16f5e81833d6U, 0xe1d0082aff0108e0U,
  0x2602c71be80b0bfeU, 0xf90839e2f2d309e0U, 0xcefad1fa31fbd4c7U, 0xfbe7e6ffd20c0bedU,
  0x500e0fc4302f90dU, 0xfd26f8f4ede2f709U, 0xff09fc05f4f1d6fbU, 0x1fdde0fa1d21eb04U,
  0xe3e40d1b08edea23U, 0xe604f600162130f8U, 0x15e21a1bf007cfbfU, 0xeb7dff3b4f718c9U,
  0xff4fa0ee533ebfeU, 0xbae4db0a1f0113d6U, 0xe8ebf6ebd9e9f7dcU, 0xea08fe1eedd708e6U,
  0xf5fa1b07f2352becU, 0xf5fdf032f5d4eecbU, 0xee03fff0170f080cU, 0xdf1217daf0f311e5U,
  0x2d80303a6ed1afdU, 0xdbecdd35f9130ca1U, 0x2bddf1b31c1919dbU, 0x81fd1f0aeb15f203U,
  0xff15f3ff9f32fddeU, 0xfa00ca1cded5a8c1U, 0xefec08091cbfeee0U, 0xeffac9f0b8f5a5f3U,
  0x1fea0bdbeecaf50aU, 0xcc06da15f0f9e5e7U, 0xfbe60e2806b5f7cbU, 0xf2f80509020825e7U,
  0xffcf812d8f2fd0dU, 0xede2f0fcf9121bf4U, 0xe0fa2af8f500ebd2U, 0x3eee3efebea2fddU,
  0xd6de0ff5fb2119eeU, 0xe9bfce04df3231c9U, 0x24d2e80304f013e4U, 0xf81f15060f141725U,
  0x26074d010b1f0f08U, 0xf6e2d219f009d1a0U, 0xe739f222d1021805U, 0xcf05fef7011f0436U,
  0xf3041dc4f4fcc700U, 0xfbcfe6132e30cfccU, 0x1eb1d22031eff8d8U, 0xfd2afd1903ea28f9U,
  0x6ffff042418f1U, 0xde506fdffe502d5U, 0xdf13ee0b15e71ddfU, 0xeee6d6f2c606d009U,
  0x172b05ef01dde303U, 0x14d50ffd0ddce3fdU, 0x20ce07f243dc0afdU, 0x1502ec0510fb1008U,
  0xecf412d4f6fb2214U, 0x207f7e4ff050bfcU, 0xd931f801f01720d7U, 0x133306ebddf11c08U,
  0x160be01c013d40f1U, 0xf3ed02fc17e7e3f8U, 0xc8ffdfe110e6e405U, 0x120d220d081b0d37U,
  0x23fffce703230df2U, 0xce31ec20f4f709fcU, 0xc7fd22fa1ff00419U, 0xee1df0f3ee11f000U,
  0xad8ae0e181bf6b9U, 0xe5de048112c9c2dbU, 0xdb94f1f2d804c4e1U, 0x2fd006d1e8f712f8U,
  0x32c5e40409291db7U, 0xd6f6080b0304f7e4U, 0xef050099f402d8f8U, 0xc818e1c8dfa2eb14U,
  0x170dfa34001ff704U, 0xecb3ad6d1fade12U, 0xce0803c7f513ff0dU, 0xf4ccdf09130a12f1U,
  0x8e6f029f1072edaU, 0xd8d85d1f1115e2ecU, 0x170b17cb01e6fd04U, 0xdcfbf1fecfcfdc03U,
  0xb1afed0f0a8eeeeU, 0xfbf3f304f052d7cfU, 0xf6d0faf72918c735U, 0xecf8031e021f26d5U,
  0x808fceceada412dU, 0x18e81fffcad7000aU, 0x10ebfaf514e9e919U, 0xa4eebedc01110c09U,
  0x9fff1db08f8cabaU, 0x1c8fed52902c0c2U, 0x7c700201305ccfbU, 0x1bf1c532dec01606U,
  0xcf1e103d00a20daU, 0x27f655f3bec8fbcaU, 0xed1817e9df064003U, 0xe7f1e0e8e2e4010aU,
  0xdeead300e910c7f4U, 0xdcc3f9ede1c60d03U, 0x1403dc01d2ee36c4U, 0x2abdf22a07ede2f3U,
  0xf90b0f47030628ccU, 0xd0cfcfa0b0919c7U, 0x290f00dcffe81411U, 0xdd35182be8cff4cfU,
  0x240bfbde1b0e2f16U, 0x621dce8f520191bU, 0xd4023609122de410U, 0xfc01edf80fe210eeU,
  0xe72d00bbfdf52430U, 0x29dbe81f4d22cd15U, 0xf4fb1ffc370bf025U, 0xbe201ff91915fa1fU,
  0xebfcd1290bf9dbU, 0xf70512e40f0b11e3U, 0x7ed281af815e8ffU, 0x707d4f2fdec10ffU,
  0xf2e2ea02fd070518U, 0x28d7331a180bce0fU, 0xee0601d932f017f2U, 0xdd081df403e2e515U,
  0xeaf0f4060b10d910U, 0xef030fd7e2eb1b05U, 0x1ffd10080321fff7U, 0x708ccec010121f7U,
  0x1ee8243201eb060fU, 0x3017ee1119262501U, 0x40d0b06090eebf9U, 0xfa22e9f815d30803U,
  0xddcbc90a330ce2d9U, 0x14e30af6040900f0U, 0x2fcf7e2ce0cf002U, 0x17f00703eaf5fee8U,
  0x15d410fed5f0fa0aU, 0xf2f41921e0ff0e23U, 0x7f7151e221512daU, 0xf9f020eae412fe19U,
  0xc7e6daee1dd917b6U, 0x1fe81becebd6ecf6U, 0xfef706ed170cf61eU, 0x10e0d526caf8b2f0U,
  0x1713effcd7d5f7ceU, 0xf7fc29f701c700e0U, 0xdef92b12190f23d2U, 0x1d719dee71fdf1bU,
  0xd50bdff508fb14e5U, 0x180d1ffa1105d1f6U, 0xedd90cf60228eb2cU, 0x100f03ceed1cf3fbU,
  0xef00e817e00ff907U, 0xfc06200409e5efe2U, 0xffea2fdd25fd1708U, 0x1b02f7d2e90ce5edU,
  0x60ef7d4ee0dc409U, 0xe4d5f807f51cf80dU, 0x1ae5e7cfd6210be0U, 0x2308fc04f00e1ac0U,
  0x29c4070bf0ee1b1fU, 0xc0f482cf10c220cU, 0xf80007efb9fcf61dU, 0x20ebe0fb11e40be1U,
  0x17eef2e0d8fd15c0U, 0x92d401ecdff7acf0U, 0x34f4e3d733d141d8U, 0xfadbe344cce032c0U,
  0x3b330b09fb11f1ceU, 0xe2d42529f6f92dc0U, 0xefb9d0312d5d5c7U, 0x24bf08d9e1dfceb0U,
  0xe606f639edb744e0U, 0xdfd2e2f88f36f1f9U, 0xd418c3ba0801fa15U, 0xabe903ddc206ccf0U,
  0xfc0cebebd2e201b6U, 0xdbc8eff8cfd4ff94U, 0x1013f5f03ec5f6d8U, 0x20f2fef5ce18dfedU,
  0x20d4e3dbe32d08e1U, 0xbf0ef0c1faec1316U, 0xfff5cf06da13eae0U, 0xfc1de7e54518ef2dU,
  0xeda13e7ee3b1c26U, 0xdc08031b1d310efcU, 0xdc4409ae53c8e8U, 0xe81510f306f03418U,
  0xfbadd42205e7e1ccU, 0xcd06ddc429e5dc03U, 0x10f69c20c5ce2181U, 0x37b1220a15f0fe1eU,
  0x3cb1921f039ebdbU, 0xd5d7de141d2a3cfeU, 0xdce9e8021c1e2de8U, 0x1732fdde87f9e9U,
  0x13a7e755d6d9fa04U, 0xf80dde04e5f2e006U, 0xb5a8f1602ebfae1U, 0x17ef5d150622f7c0U,
  0x28e1042efbe3c5efU, 0xeede9df5ff231fb7U, 0xecd20903e5ab1ae5U, 0xfa00e7f5f4edd8edU,
  0x90adb141ed90ce9U, 0x12f305fa08e31c16U, 0x61117fdf9060a22U, 0xfa0a19060a0cf02fU,
  0x10f03f80e08bf1cU, 0x190beee71601c712U, 0xdafd0d1efdf2eddeU, 0xeef406f7ef1cfd1dU,
  0x5d7cb29d605d9c9U, 0xfbf911fef0021d06U, 0xe425f4d6010ccf13U, 0xf6cbe819fe07e500U,
  0xe6f8c5e10008fef6U, 0x1ae127080ee91603U, 0xdfc08ee0312f208U, 0xbae812ee10eb1515U,
  0xf203c716fc39edbfU, 0xe9e6fe011526f8f9U, 0x6ffe7da00dfef03U, 0xe304f60710220f0fU,
  0xfe030bebf51d22e6U, 0xc9dd10edf0fbf0fcU, 0xd00edeb0df6101eU, 0xcd17e2dcfdfbeff9U,
  0xf816c7f214e4d3d6U, 0x21bc062523f810e9U, 0xd5db16dc3302d5f9U, 0x917c7dacdf1e636U,
  0xd101fdf7d606eff8U, 0x2a061eca04d3f20aU, 0xb0dacc0b0a372bfdU, 0xeb0d29e5e7f51f06U,
  0xf3ecd4141cdab707U, 0xf9db01ec05c6f00fU, 0x433dffde5fc1402U, 0x1ccbe71f0804e1f1U,
  0xfa06d27ff5e506ecU, 0xf6e622fde1ff1ff8U, 0x1ceadc020a32fc0cU, 0xea0f37c0d2d020e9U,
  0xdebf233193beb11U, 0xf40700f82cf814ddU, 0xef09d5cddc1d1cfbU, 0xfcf80d0ee900ff1dU,
  0x4bfaf829070826e6U, 0x260edd02d702faf8U, 0xa0df1f22bf7110dU, 0xd00a1abeeffde8e3U,
  0x304d0fd00032fa9U, 0xfff1fde6ddf7ff03U, 0xf7d6330a0bd2e1f0U, 0x1eea09faed07f9daU,
  0xf21afaf405e421f5U, 0xdaeb22f41be3f419U, 0xe1da03ec0519d61fU, 0x712f916ffeee725U,
  0x1af7cd29000114e0U, 0xf5e912d103e10aeaU, 0xcdf1eeffca06eeeaU, 0x3fe806fe0d04c815U,
  0x47ead01e09c8fcf1U, 0x121913e4f1e11c01U, 0xe617010ef8bcf414U, 0xf1f5c8c51413f82aU,
  0xf7f6fcf7d402fc14U, 0x19f6e8d91bf30706U, 0xe9ef07eadbeff4ecU, 0xfefaf90bf901d836U,
  0x280001f9011a1a18U, 0x1009f2fe0d093724U, 0xf53df30d0110fbffU, 0xdc070eca140106fbU,
  0xe90efbd432e923f1U, 0xfbe5fd101ad6fc08U, 0x3418ec2f1ccffb38U, 0xea06c42716dc11fdU,
  0xece7fdf6d3f3f0e0U, 0xf710ef01d7eb23f4U, 0x10060f36da18c5e2U, 0x100ecdd9d4181df9U,
  0x211ff1206f11bcdU, 0xfffe35fd0dcdf609U, 0x24f5031be62d1f21U, 0xff03e22cf6fc24f6U,
  0xe302c608e8fcedf8U, 0xe9060e0bd7ceaeffU, 0xeff0dde53be303f9U, 0x2d0310d4fe261fU,
  0x2a211decb5e6fe00U, 0xd8f3f2eef53be7ffU, 0x1ddc0ce33aff0909U, 0xcb18103812163411U,
  0xf323f0fee809f11eU, 0xd3ea0d1502d4def2U, 0xd8260bc407dfecf9U, 0xf02410dbe611eb06U,
  0xbe40eae6fd15d1ddU, 0xc2d50ed43c14a7fbU, 0xfce9ddf5d1deae0bU, 0x1ee1115d3befcd5U,
  0xbea1f6f49c1002bfU, 0xfbcd3eea00d41213U, 0xfb2acfe313cee404U, 0x1280ec5fdae1db8U,
  0xff09cd17a724f9d1U, 0xd6ce07fcd70314c0U, 0xe706fd0ce4e124cbU, 0xe0060f4f0adef70dU,
  0x1a0fda3d971c2ee1U, 0xb181419f0a8ffc1U, 0xe510221100f2e912U, 0xc0810fce0e109f8U,
  0x2f6fef5d60ddff4U, 0xf3edc8e6c33be90bU, 0x60de91f1dfe0affU, 0xeff50a2106ec0707U,
  0x130bcd1cb91411d5U, 0xf1dce9180aecdee6U, 0x22fde8c604f7f413U, 0xe5f101e7d5e3b0ccU,
  0xe7dae304230323d0U, 0xce37c91fe208fe26U, 0xe21ce4fdf0fec710U, 0xfad30cc0f9e2babfU,
  0x81a0bd9f2c41b23U, 0xad1e5ce1fe9d007U, 0xe11de91a01f8c11fU, 0x1f012d00d11ca21U,
  0xd610d1b7db42aac9U, 0xd807f3e3281913deU, 0x16cfd214f9e1ce08U, 0x1b0b03061d1b0ef6U,
  0x2ee00205ce1929fdU, 0xe18f40ffae0d2f0U, 0xf9eef90b10c9ff12U, 0xac9f2c60a22bb53U,
  0xd202c9ebd22e8116U, 0xd8de0606fde60e1cU, 0x1efeeb2108f453bbU, 0x38fd04f916d2d915U,
  0xd05e546dbf71be5U, 0x20130ef630091421U, 0x9e8f0fb3bfb1926U, 0xf31b06c111f5e431U,
  0xb7dac0ff3bd3b728U, 0x11fc08d32206b3e6U, 0xdd0125e8e945e4fbU, 0x11d7f519ca07e2f4U,
  0xb2fe244afb05cddfU, 0xf91a11a71bf10bc1U, 0xbcb1c050822eefaU, 0xb7df09baf7fe05abU,
  0xfdcc9b12e521fb32U, 0xefc61008f5d426b4U, 0x1e4f1ce02172bdaU, 0xe8eccd32c8ed0e16U,
  0x28fea764fc1010c2U, 0x11190106f4ee1ae0U, 0xcd11e1fcfcd01f12U, 0xc8d0f30de819ee02U,
  0x4ddce2ed092fe2f4U, 0xdce4e103fffe06e3U, 0xe4ebdd23ddeeefd2U, 0xfb2ae7ee03df0ceaU,
  0x34e864e2efd73f1eU, 0xca2bcc3af0102907U, 0xf25dfcffe70cfc1fU, 0xdfed150f08041d07U,
  0xcbeed5f0490de640U, 0xfc2ff3ffee213227U, 0x3207e031a19ff2f3U, 0x3e6f905d90c2d05U,
  0x1700152c34e420ecU, 0xe8f1dbf94cfee1faU, 0x4b0ef0f219050eeeU, 0xbff342e3ca37f520U,
  0x4cfe31829e4f50eU, 0xf52df50ed76eded6U, 0xf108bafc3549fe24U, 0xdbf00b0a25211a06U,
  0xfde3c6ca280ee535U, 0x908e0f922d6eac5U, 0x340000c3fdac0ae1U, 0xbc030fb8b3f604c3U,
  0x53e1e9dbc5bc2708U, 0x5eabff2ad38f025U, 0x81df6d07f510f39U, 0x90141753f40dfc0aU,
  0xdc47edd4e5f0ca0bU, 0xfd00e91bf302fce8U, 0xf10403eae000ed1bU, 0xd609f3110bebf9d4U,
  0xfec7cbafdd1a3c3aU, 0x21fcc6ecfb1922f4U, 0x2308d31af303c4c6U, 0xca32d6e9e4ffef5cU,
  0x2d6e2cafa1f051cU, 0x3240b5ff242af2eeU, 0xf20f03d4f8f214cfU, 0xbc0d11fce9fc0efbU,
  0xf0e513e3ddd7f7c3U, 0xe60aea4ef709550fU, 0xcffc04ffcae2cdb9U, 0xe4ff29ae0dd1de55U,
  0x1bc6effc0b143743U, 0x9a5d7eb0ef9d60cU, 0x181ada943a1b42bdU, 0xb54e55efb114311fU,
  0x8dde1aae8ecd14dU, 0xfae60724e9ff0ffdU, 0x1c3b051424d93fe1U, 0xff0eb0d00460123U,
  0x5e7042601e0e0f9U, 0x15e1e416fc17ea19U, 0xf814e1fbecdb2d0dU, 0xc1331133e0e5d939U,
  0x42d2f1f71518e528U, 0xbe23ede6ec10c3f0U, 0xe7b20814f329d71cU, 0xebf40006fdd313e4U,
  0x1cdfec081c20f3d6U, 0x33d73e570dec1506U, 0x1506dfe3d042d8e3U, 0x81b3f80e201a0022U,
  0x42d3d203e30b09e2U, 0x2f6081a0cf8e0e4U, 0x15e113073218f1fcU, 0xe515ef4af5bf1dd1U,
  0xdd04e417061ce7ddU, 0xff42e49e5f223fdU, 0xf027abb30b0e0d07U, 0xb0d0f4ef18ecf01cU,
  0xf4fff2e9f7cc2a0eU, 0xf9e3bf24dc3409dcU, 0xfff8e2f6180c0ef6U, 0xb17f8250afc1405U,
  0xf60209ec19d62115U, 0xd9e91615f6f502d4U, 0x1327fcc0f50afeU, 0xcbb9eb312a2de5efU,
  0xf7f0fbb81d17c1ddU, 0xeb01fae12afee8c5U, 0xe9cf53212f7d702U, 0xde1cccf3edb31906U,
  0x13f404fcd937ffb0U, 0xef0ecf5e8dfd1eeU, 0xf70a121e110bcbedU, 0xbbd915041744ee28U,
  0xfef2e3264211c505U, 0xeb062eed0e0b0210U, 0x1b14ff14e635f815U, 0x26b72914f507260eU,
  0xf506c52feedaf116U, 0x28df0e07e4f1ef13U, 0xf7ffc850fa27ffU, 0xd1fe20e6f0013e02U,
  0x15bde8fe09dc1419U, 0xf8f1eef901d3fddeU, 0x46f81ad4424f351aU, 0xfbddf366251af900U,
  0xf114f93bd5e3f2e7U, 0xfa051f08f6e80efaU, 0x2ddeec4e7e1dbe3U, 0xcf1bfc10330fefd8U,
  0x14eed71333e83be0U, 0x10e1f0acc203b5dcU, 0xeedbd1f0ec11ef21U, 0xec1ddab9df1edc1bU,
  0x29091ae7eee7c4c5U, 0xe301efdec0dafac9U, 0xf7ff22d540d80de5U, 0xe6b7b8081818ec01U,
  0x3be901e32cd80bedU, 0xbecebcfe8d72513U, 0xae05cfeacb32dc0dU, 0xfaf30f91e725de27U,
  0x1fdcea2f1fe1dddfU, 0x10e5f3d7c4f7ebfeU, 0xfed726be072404deU, 0xf4cbdec3dd1afe21U,
  0x53d004490cd81618U, 0xdef927eae9a3e218U, 0xc07feddc9d60505U, 0xefbbf8c70b62f715U,
  0xe2d2e90d22e6e2f9U, 0xfbe3d514ddfeeb30U, 0x4c21cef03df1d9edU, 0xc5daf50adddff62cU,
  0x3515fcf90ab60ae4U, 0xf7eb1cde0e34fefbU, 0xf4f326322910e00eU, 0x29de1803060106d4U,
  0xe31b0710e2ebf7fcU, 0x22162917e6d414f4U, 0xdb2204daf5f8f6d4U, 0xfa07f5bc13e0d209U,
  0x23cfe0defa1908a4U, 0xd4cf10212e04dfc8U, 0x1929080dfa0b0011U, 0x1ef40ffffeff0bcaU,
  0xf3df1313e10600beU, 0x1a0e170afefee7fcU, 0x28b91b0f16eadbU, 0xefe2e4f60901ecf8U,
  0xe8f1c645132605dfU, 0xe7172e2602e1f8f1U, 0x1010d2fff50e0ef8U, 0xf30a20fbc434d8f9U,
  0xbfedefe305fdd2e5U, 0xdcfdf3bd0af2e8e2U, 0xee1fefe52ad02ff2U, 0x180d18e7e3f9d5f0U,
  0xe8bd0207e6f4e7U, 0xf1fed0f529f6ddcbU, 0x12e80327e309de01U, 0x28c10128fdf124a4U,
  0xdae6d90ce4cae606U, 0x2bf34522ded12706U, 0xd40f1c010d0eebe5U, 0xd6fddce807c70bf1U,
  0xf6d1a6ed3a1e81f4U, 0xe90ecffc2ecbef9eU, 0x21e006c9c70fb1U, 0x2a00b72ad9d3f2f1U,
  0xe696cb370be2f4afU, 0x28093812cbe042d2U, 0xf510c626e30b15e2U, 0xde0c16ffe8f80cbcU,
  0xaefe00a081ae0e9U, 0xfdf7131621c6f718U, 0xfafcebb7dfd423c8U, 0xccee818aef81014U,
  0xdff9f02a0eeddcccU, 0x29011108ebf310f3U, 0xe6f3e5d00a103908U, 0xee0b21e207e600efU,
  0x5070500010e16fcU, 0xf8e9f9f1021f00f7U, 0x1b050608e3dffa0cU, 0xfbfb31df0c28102eU,
  0xbefe051bec09f30dU, 0xf902feffe52ef01bU, 0xed052ef51b0008e3U, 0x4f3fc0de321fee6U,
  0x19d0e8ca040113f7U, 0x808ebf00afc17f0U, 0xff6031bedc4d9f4U, 0xfd16f50009f3071aU,
  0xe502fb15e928fcfdU, 0x33eb14ffe7ebea00U, 0xea0f02fdce2539f4U, 0xf52124e6ebff15f7U,
  0x7e1e6c7eedff62aU, 0x6f8e3e6f5f7f417U, 0x716efe9e5efe9faU, 0x7e1ebdce118e2faU,
  0x5caf423f328f4e2U, 0x1d120213d30922dcU, 0xf6fbf104e2080cfbU, 0xf01a1204f4d8ede6U,
  0x5e9f80b1a32ff2eU, 0xd7f1b3e5f7f630f0U, 0xee22c8f0c5dc32e1U, 0xe8eb3b06131eb302U,
  0x1fe74b2a101c4510U, 0x10ad809c6fd05e3U, 0xe6141237ad37c129U, 0x180309ff33f924ccU,
  0x40db9161c3642efU, 0xedf11700eceff6f2U, 0xcdbafefadc18c2eaU, 0x3305270be5a0db13U,
  0x16c4fffdf9441be8U, 0x1dfffe4002d1fdf5U, 0x9b003c15eb51f024U, 0x21622db18fc05d3U,
  0x43e6e20ee41d0e09U, 0xf7ff39d101f90d12U, 0xfc1bfbf51837f410U, 0x17fbfd22dee02900U,
  0x3d11b3f1fd312cdfU, 0x2e72f37f8e51500U, 0xef1d03c11421f717U, 0xdd0d2fcf0901f7f4U,
  0x9f0ef2f5f4ecdf2dU, 0xca9ee404e9f6e9e7U, 0xdf14ebbdddca0de3U, 0xf7f4fef2e11ecdfcU,
  0x2e73706e80a24eaU, 0xf3fae1dcd6dce7f7U, 0xeaedd0fff300cc19U, 0x1519f5f2fef7e8efU,
  0x8dddba2cfde1ecd4U, 0x5b300e628e8e3cfU, 0xb0ead4e5ecc2edcfU, 0xf6d40defe0d4c8cdU,
  0xf0cfd531c60c26d9U, 0xdfc717ba81ba200bU, 0x84de16ecf4c8072bU, 0xe939f104f7da14f6U,
  0xa5e6ba0b2e1bf5e1U, 0xff519fcfa16f9d7U, 0xebfbdd18f61df102U, 0x28f4fbd51cd60300U,
  0xed11e622f70401ffU, 0xcd121e1bf0e5eff8U, 0x9ef07f9fbc70824U, 0xfd03f3f0f4f5d300U,
  0xe105fff800fd0aecU, 0x5f8eef30d02e80dU, 0x30ff20de0608f100U, 0xf401f516efe627daU,
  0x1715d001e2e405e6U, 0xfad2120305eafcf7U, 0x13c208f2f40fc707U, 0x1604d7ec1fe5eb11U,
  0xedf4eff51406ecfcU, 0xe8e3eff801cfe2bcU, 0x150f17cf0f032b09U, 0x18cfed04df12dcd0U,
  0xd51ae745ffcd21d9U, 0x18efe5bbd7e6e3d7U, 0xf1c6d328e7d0d80dU, 0x31edb7e929e7de20U,
  0xcd1ada03e332f708U, 0xec1c051afcdb55feU, 0xe8fd13070deff9e2U, 0xdcf102301cedeef4U,
  0xe120cd3ff9f04125U, 0x161041e30ad0f719U, 0xddf3dff01d383846U, 0xe1024f828ee2126U,
  0xf7f1fcf23bf6e431U, 0xed4204472dba3729U, 0x25f7e51fc60b14c0U, 0xd30cf402c5eedf69U,
  0xf7d3e4bf1eede40eU, 0x7ff7a7c65809cf31U, 0xf29ac3b17121eacU, 0xef0b362fda37f738U,
  0xd5d5de0db2a9d3c2U, 0xec18fefde7c9ee1aU, 0xe76bddbfc5d805bcU, 0xf303ebfed0f6d806U,
  0x26c4012a08d9deecU, 0x5cdc0c61deae910U, 0x19d7a91714db0ef9U, 0xf9293ad5e1e2d3f0U,
  0xd8daec061a4fcdf2U, 0x1e17091425051d00U, 0x9f8dffbf9aff3d6U, 0xea3a03ecefdb0d4fU,
  0x34e320fffe33e404U, 0x1b1cefed0400fbf7U, 0x100a0314ec3a20e0U, 0xc5504303c0171ed1U,
  0x1ffcd511bae4abd8U, 0x21c4d43f03430710U, 0xe9f110fb3413e6e4U, 0xfc09d12df4d3222dU,
  0xe3fee9e0e8fdff0bU, 0x4bd5130e0be9c2f9U, 0xc4e8eec4ee130cd8U, 0xe50413f5fda7e938U,
  0x39db0e51eb9f2c5U, 0xe4dec1dbf1fb0807U, 0x1024f4f222051bd1U, 0x3baf143dfbc2f8c0U,
  0x31f9ef45dccf17d7U, 0x2be044eeead2e4e7U, 0x16b9c21bed2ad6fdU, 0xfe1215e10dca0912U,
  0xcef98ae4090c42f8U, 0x25f1f7241d45daedU, 0xf8edf8f8d8e7f9edU, 0xf1c06e3d4e1ed1eU,
  0x161cec02d1e7c1fcU, 0xdff4f8afd7e2e70aU, 0x20606e4dbe90713U, 0xca3702e7f50806e7U,
  0x3a161a21ff091afbU, 0x72109e7fd15e8eaU, 0xf510fd1efc2d0f00U, 0xf807100a0001fc26U,
  0xfeeb0a18dc362607U, 0x8ece4f9e6260d0aU, 0xf2094502ddf2daf5U, 0x1511ebdb34dd0e00U,
  0x2ccafeed293a0dceU, 0xd910d8e8e2f308f0U, 0xce91741e50021e9U, 0x21d3fa2cf9d525f3U,
  0x824f013ed1c1fd3U, 0xbf11f1c180b08f2U, 0xf60cc4ffe3fffc0aU, 0x52af3eb1e0a18daU,
  0x15e9fd4508fd1909U, 0xf021c13dfe9fd02U, 0xaffe6f5ff4730feU, 0xeedd1a13e01efff6U,
  0xf6ffea32fbd806eeU, 0xf60eec2d1b0eff05U, 0x328f1ee21f5390bU, 0xf21ddec5efe5eccaU,
  0xe0d5dd3332d3fcf5U, 0xd7d5aa010009140fU, 0xea260b30e8ffecd4U, 0x250e08150febd1e7U,
  0x4e110390312260eU, 0xf9c82ce4bbbb1eceU, 0xe0f61fe3cf3bf8f9U, 0x702e627c71819e6U,
  0xebaeca2f20daa605U, 0x9cc9e819371fe8b3U, 0x283403101af24befU, 0x2bf8cd72f1f50dcdU,
  0xdde8fd4cda13d90eU, 0x2af50427cfef1a0fU, 0x1341f30ddcfdcbc6U, 0x7d58a0dcbe81bbeU,
  0xedcbb1d0e5fc4f2U, 0xc7df30ff29a5e1edU, 0x32d4f19f44f81de3U, 0x33f414f5a4eefd13U,
  0x2fe234d0fc0fe70aU, 0x1e2b00e826f60c0bU, 0xeb1ffe02c5ece9bdU, 0xfd1a1dd7fade0803U,
  0xffdfca0025c007abU, 0x961b0c080f2d1ed1U, 0xde1d14becd4cf01eU, 0xf9ee43031103e2cfU,
  0xfeeee40ef3cd4618U, 0xe4c5e3d4d8ba92f0U, 0x2df4f61c2833de0dU, 0xe5bfd2fcf25d1100U,
  0xe427e8281cd4d6dbU, 0xa5fe1f513760f787U, 0xfe8e7dc222fd52eU, 0x4813024725191e03U,
  0xf922e516f82ceffeU, 0xedd34304d4bbcf19U, 0x1425e5e84fd83a0cU, 0xfa0cd411c13bc1dcU,
  0xc32ae0fff114a2f7U, 0xdbbc0d3fe4fb0cf2U, 0xcfcc87d303f22bdeU, 0xe7f0eecb81e3ed2cU,
  0x208f7d81038d9c8U, 0xe7f812fad4dbe0faU, 0xe634dac314f026fbU, 0x206f3fad5f2d7ecU,
  0x3bd9e618e10a42faU, 0xe00f0eeae9250934U, 0xdffd04f5e8eefe01U, 0xf1f13512ed272503U,
  0xe90dd10e292514b0U, 0xf8fafd3d1908a32dU, 0x313bf4d526c803feU, 0x107f4e1f808b807U,
  0x3ef6d3b60e020016U, 0xfb0b18e7070d13d7U, 0xc3b90fe9ea0aa42aU, 0x1d0bc2d9c6d925e1U,
  0x3004ba0df60931f2U, 0x91cef0013f9e43dU, 0xf12bdc6128e2015U, 0xc00419c10b06e421U,
  0x311303e5ff18ff05U, 0x1509ede6dd0d19f9U, 0x93e3fffc101c0e0dU, 0xffd2c4c9da27e0e9U,
  0xff11c2afef43d11U, 0x2700e30b170910fdU, 0xea39e4c3eafe531bU, 0xdc1219fde9b81d4eU,
  0x3ae4f2f804dae908U, 0xdfe0e122fe09f404U, 0xed0a09feec0b1de0U, 0x44fbd8fc18f7ebf9U,
  0xec52e18d622e0f6U, 0x10d7131f211b2d02U, 0xf80fd11def1ffa18U, 0xe2e523fe03372140U,
  0x34151adb4a15080eU, 0xe636f7071805e7baU, 0xf4d8fbd0c0f3ec2fU, 0x29eaddd2b5ffe1c3U,
  0x28a70d044a0bf6d9U, 0xefaa1d0edeec37f4U, 0xf011ea5504182ee8U, 0xe8eae7321f2305e4U,
  0x14f127080efb3531U, 0xf119fde9d809d2cfU, 0xc2b00df7f02ebb03U, 0xf811dd0cd5d02f03U,
  0x71615ccf52ffa2eU, 0xd9ad274b1807ef01U, 0xb3489e010edafde6U, 0xbfcde1d6f2f5d5e8U,
  0x1b9fdc17e6effdefU, 0xc8ebc20fe2d2ffeaU, 0xdf13a1efe51910d1U, 0xe7092ed11f26b9faU,
  0xf5c543ffe402e2e6U, 0xdbd3ef243c0d08deU, 0xe4ffe332e512fd23U, 0xecf3f302eb0407dbU,
  0x3ba31509bc13001eU, 0xd331f21eefde2db6U, 0xaec598ebee24e6d8U, 0xd62000a7d0ccd720U,
  0x42b22cebd01b10e7U, 0x27afca1adba1d881U, 0xca19e722ee0d17fbU, 0xb9d515d5c919a81dU,
  0x10e52424ca19d219U, 0x20262bcc24fd040dU, 0x2fce181a062ab1beU, 0x20e0fdda1ac61de5U,
  0xf9ab2de3cd33064bU, 0x17c2f8ff06e5d607U, 0xfa17f39ce54febd7U, 0xddfe19dbcb9d2b1cU,
  0xf9fbe40ab2da1a05U, 0xf1effa1ad12ce1eaU, 0x302ecf6130217e2U, 0xaa2d4903ef0514f4U,
  0x15083fc90afdff08U, 0xe2f6b51925ebedd2U, 0x236ee13fb23ee01U, 0xf8000e18ebf5d1e3U,
  0xdcf9eef4e71215eeU, 0x1d17f8f60d13b4d1U, 0xd09c09d41538eaecU, 0xcb1309d6d901fb0aU,
  0xd4181e8fd4f2f4e0U, 0xd6e0010bc304abU, 0x18f7d113e10de8e7U, 0xe6cdf9e2e7f8e1c8U,
  0xda080d400e3118eaU, 0x3af10de82f21bd13U, 0x3e0c5930090c05e5U, 0xf5bf062edbcb35d4U,
  0xc4eefa29bddb05ecU, 0xf3d81b09fcef01fcU, 0xd9e40be1ef212ac4U, 0xfd0ffb21d2b419d1U,
  0xe9dd021221fc39fbU, 0xcc16dae7171cdaedU, 0x6e00722f01f1518U, 0xccd710faf5d4e1ceU,
  0x38dc2cf5eddb321fU, 0x2d0061cf0cddfe1U, 0x1df3314fe33b837U, 0xe4dadc4cf01c2ed8U,
  0xd9c7edb622c8bfe6U, 0x12e3f01148f6b9d1U, 0xfdbd2924fbe50909U, 0x31e5a748d0b62800U,
  0xf2b0e11119fe19e8U, 0xfbe454fae2b508daU, 0xbeff19cf0c4c3013U, 0xe4313ef7e2eaeeddU,
  0xdde123ed0aedd4f7U, 0x4e7f315f84fe5deU, 0xcf010091c2a202dU, 0x2f06dd0c01f24a00U,
  0xe5deeb323c1216ffU, 0xf8ee33e7ece51fedU, 0xbef0cd3f2de0019U, 0xcf04ec0201e6d1aaU,
  0xf418cc38ecf9ee14U, 0xf5f21b2afcc917dbU, 0xf41df0e61fc3229cU, 0xaa0002081d23c6f8U,
  0x711391fa4d5fbfdU, 0xf4fc9d1403f606deU, 0x7e1fff2253d00f6U, 0x2d181206ea0038f9U,
  0xd187cb161914e9fdU, 0x81d6f8babae4e4c5U, 0xe804c900c3f725b8U, 0x37c01511d8cee2bfU,
  0x47bfee00fee512bfU, 0xebb718f4f1c722e4U, 0xcf12e20be0f9bd12U, 0xd5f2f0dae2c1bb13U,
  0xd9cdd400e507d2f1U, 0xb905fcf3f5f246beU, 0xd9f511aedcc0e9e6U, 0xf6e608c1e2d6f3e6U,
  0x1b29270100f1221fU, 0x12b903fdfc080608U, 0xfe42c9d20e22bb06U, 0xd6ec0d16f50ff9ffU,
  0xe41c0f1cb0111227U, 0xfc1ad538f717f003U, 0xe01fe403fa0b04f0U, 0x6071bf42026f70fU,
  0xd6193b59e4fdbde2U, 0xf4fbd5e21e0308a3U, 0x20ef0cfcd91235dbU, 0x3dedf515e5f9019aU,
  0xc2fadb4e0e472631U, 0xda29dc05fcf81afbU, 0xe62cd0dfddff15ecU, 0xf0ff37f7f41b0739U,
  0x1df20609e0e3f7dcU, 0x18e3d5170fed05f7U, 0xf02d90310fcec03U, 0x2b390fd3d71bf2eaU,
  0xdf3f81b2446220eU, 0x143f0e04f809260aU, 0xc82620b70ff0d814U, 0xc50b1ad5c714d316U,
  0xebf203dfeff1db09U, 0xf0d9cc10fd13e80eU, 0xda0dd328ec00ddccU, 0x21e4f82ddc39e5dfU,
  0xdff6031df90827dfU, 0xd6012ef2fbf1ebe3U, 0xeb1421f6ebfc0327U, 0x11d91a04e4280ee1U,
  0xf124ecef09fa0fd6U, 0xe6f9290cf1f2eedcU, 0x92be91013fe131aU, 0x26fcd24501f308d5U,
  0xf4ee050408d61fcfU, 0xb92e0be3d2fde89fU, 0xfeefecee9ffe20dU, 0xed9210e05fd1db2U,
  0xf8f8f912f6e920efU, 0xc52123d0efc903c2U, 0x111bedfd21d9d0faU, 0x26e7b71b0206e3d2U,
  0x2edf3508fee82d11U, 0xca183908fd0510c4U, 0xd4e402b9fa1ed527U, 0xeadf130433fc16d6U,
  0xd8fc01e9fee51c16U, 0xdf202260708d7efU, 0xa29ed110f0ad7f7U, 0x30cdb14f909f3cbU,
  0x16ebe619d4ea130aU, 0xe82bfdfbf50e0bc5U, 0x3f20fd809e707efU, 0xe019031cfd04f2b2U,
  0x33210c0114e12b22U, 0xb3ef2cf80101ecd8U, 0x1345ec0cf7e814daU, 0xf1151a32ed0fe1dcU,
  0xa08e91c16dbf908U, 0xa026e7f32a0bf19dU, 0xf2def0efee0f05e2U, 0x11b60d0f1f14e7c4U,
  0x21eaf3ff04c00937U, 0xbe1814e9f8ef302cU, 0xb3ef417eac2efd1U, 0x13cbce0fe2f12ebfU,
  0x605241afb030055U, 0xbe1123e0f702dacfU, 0xe3ce22c2e7ef0afeU, 0x1ab0cfff02f7f381U,
  0xf2f20f2bf3edea0fU, 0xbed932fc05ed10fcU, 0xf054e6f11bcdeed8U, 0xcebdd0fe7de1addU,
  0x3cf5e9e7ec03fe07U, 0xc30d052a1b281dd3U, 0x70219eb2f01fbaeU, 0xcc4e1afe0fe42e03U,
  0x382400c3eef11703U, 0x2bd60bea0ff6b6f3U, 0xf19ec0f1211edfaU, 0xf6e1f814f848c21aU,
  0xe418d8eac6d4dc10U, 0xcaece8073523f9f7U, 0x20d9fd0bedfcfea1U, 0xeed911bf06fef8f2U,
  0xf1ee22f5dbd00340U, 0xdaf31beaf4eee01dU, 0xee39f7eb14fd04e6U, 0x7fbfdd9e0ea1532U,
  0xd8ed0ad5e51ac80bU, 0xc5f5e6c91ef9c4f8U, 0xd3d0f005c3e6ccbdU, 0xefd81d08a225d5U,
  0xfdca0319c6feee02U, 0xe5bc200317ca00dbU, 0xf83e0be0dcfef7ecU, 0xe60828f0c0cd150eU,
  0xdc11db052401e04cU, 0x814ecd3fd19fef7U, 0x16cd1129eceee416U, 0x240fe5fd11e110e9U,
  0xfac1e1211aea02f7U, 0x250f25e8e4e508edU, 0xcff80b0dffc5220aU, 0xc1fe4050f2c0e09U,
  0xcd03d1fa0c15f602U, 0x12024eaf322faebU, 0xf2dd0407fa28f6f1U, 0xeae7e2e400d9e4ffU,
  0xe2f9d1c9fdf5291aU, 0xe05f0ff0ddfdffbU, 0xfbe30bb63cd5d9f2U, 0xfcd7f9fdf80ff306U,
  0xf8f3f204d8fc1619U, 0xf2ee02cc1e111c0aU, 0xa3504f117322d02U, 0x5fc2a17e92a1113U,
  0xd5151c0a02271e0dU, 0xd9edf50712f2fcU, 0x8f40de83601d0eeU, 0xf4daf1fde3f405eaU,
  0x14d5f3d2f01aeb29U, 0x7e3dee332ef23e8U, 0xfee731054d1bd31bU, 0xf623e6fbf581122bU,
  0xdb1effecac01fef4U, 0x38ff08f8d2ecc9f2U, 0xfbb5be1abe4dca16U, 0x10d5e9dd11030320U,
  0xe1e91505051dd1ebU, 0x9e7031925d02030U, 0xc5def1223dfbd40eU, 0xdcc8f1e3eee6ed1fU,
  0xcbe40c55b3e00af8U, 0x1dfc1aeeed9cb0caU, 0xd4cad0cff22614e7U, 0xf335dfd6d1fddbU,
  0x8ccfef5ee08fb39U, 0xefd8ebe9de03200eU, 0x435b3f50d083ce6U, 0x2ae12118f82403f9U,
  0x28f52133e8e21dfeU, 0x9e3e0e613e533fcU, 0xd200f2e0e20fd805U, 0xf499160bf1d7f3f8U,
  0xeef4de041fe729d8U, 0xf2af0eff1623e3b8U, 0xdcd1e0829c0f510U, 0x5e1a2206ddf731f6U,
  0x381de50f19e907ecU, 0xc1d1c11eab6fde5U, 0xc1caf108aa04f504U, 0x1bf39feeeff0fe38U,
  0x5eadbf9d8dcc62dU, 0xf4e6fffb002e0299U, 0xc6d0ee15d5cbfcecU, 0x369ce90fdde802d1U,
  0x28a9b91813bb290aU, 0x24013d00e2b00ae8U, 0xe8f4f6b1c7c62c17U, 0xedefd1e003ed1a1aU,
  0xf5f5fcd521060a0aU, 0xfbf212ca0b11fef9U, 0xdf513fb111214feU, 0xfdd9cdfee80eef04U,
  0x120451ed10d9f91bU, 0x1604033216dd1de0U, 0xecdef91bbd2bb704U, 0xe8fcea0ef8f204e0U,
  0x8de4810f4d3119f1U, 0xdcf002053ad7f4e7U, 0xefb0ec71ce010f0U, 0x230335ec02ffc8e2U,
  0xab050807ef1d1af8U, 0xda1df8a80a0b0d05U, 0x82932fad9f008feU, 0x2612e9ce30ff1b24U,
  0x11fecf5e306f420U, 0xcfd942f43e18d7e0U, 0xecf40df1cb13dde4U, 0x707e02a2ed30be0U,
  0xfde0acd8ec151e2cU, 0x12fb3d3ce9faf90cU, 0xf54b069ce501291aU, 0xba3712b51ae8ffe3U,
  0x57dfe600e9ee09fdU, 0xe2fe21ff02181c1dU, 0x4bfc180af81b1ad6U, 0xfde21d171a0027d3U,
  0x24faf3050ee93409U, 0x16022177f1191618U, 0xf515cefa2feb0c0eU, 0xf3f9efcbecfdfad8U,
  0xb23dd4fd210129f1U, 0x2c04fbf3ea0ed7c8U, 0xf5fbcfb0e73a0beeU, 0xc3f70c01cc37f7e8U,
  0xd3150be1abc4dfd4U, 0x87fb0daa13c9eed3U, 0xf3dd1fed1cc7f617U, 0x3aecfcf122110cdcU,
  0xbfe0d83108dafef3U, 0xb639fece9eefced2U, 0xb6e7a3038234d4ddU, 0xfef914f044e60f9bU,
  0xf5d3e2d5bebc130cU, 0xe3c8e9fe0ad0f5dcU, 0x122233ca06f2d912U, 0xb922efa911facfd0U,
  0x23a5c0172910d4c6U, 0xcb25cfd1ffef1cedU, 0xfe9990bdbfdebf2U, 0x6f41124f1e4fcc9U,
  0xd940219cc0f4601U, 0x37fea160181416fbU, 0x3630030c0237bb08U, 0xc5f1d0d8e8d908ccU,
  0xbaf9ea1bfd210910U, 0xf4ce1b0f0038fed1U, 0xf7cce1fefd0025eeU, 0xfeec36c40912f4e8U,
  0xd8060ffc1a051707U, 0xe1fd47d0f8f6f8e7U, 0xdb33d3ea48d8005fU, 0x8cdf80b4009e6f2U,
  0xea05d2c9ecc9f8f9U, 0x8dbe61a071d15c4U, 0xa8e4de0408f9e6ebU, 0xe70c1ae00ce6d8ccU,
  0x1a01f7f10dac3610U, 0x560f0de8e9da0208U, 0xd853d9f82df41a2fU, 0xcee5cfbe36240711U,
  0xe717983320eeef8cU, 0x15f3f5081d030123U, 0xf11d050df8e7dcc9U, 0x110cefd8fbdad210U,
  0x19f90011eeac3122U, 0x31c52fdf0833fb35U, 0xe522fbe54544330cU, 0xe2f5308a040315faU,
  0x290616ae21fd1403U, 0xf1e321f9020c0814U, 0xfc25feb023f5dd36U, 0x509ed0bfaed07eaU,
  0x2433f5f3e70312f1U, 0x5aa240cfef3d8caU, 0x14f5d225e113f9ebU, 0xf815fcccf8dcdc19U,
  0x10010eead6ea1c10U, 0x9e7e12efc0d13f1U, 0x2ad3020a05ff0710U, 0xfb031b1811043dfeU,
  0x1314ff16e8e7f4ecU, 0x26160626d4011207U, 0x21f4f8fe04e9e4fdU, 0x1ad9d5c9011af4f7U,
  0xcefff21b1bebeb15U, 0x8f5f60314042511U, 0xf7feed13fbf8f6f5U, 0x17ff011b0a15f21fU,
  0xf4f91a0c02eafcfdU, 0xf91df9ed10fa3101U, 0xf127fc2eed2014e6U, 0x6180bca09001d3aU,
  0xf5d7d92209efe4feU, 0xe9f5f9d0eaf8c8cdU, 0xe2e4a2ddd4dbe7c6U, 0xc0ebbdcb6ebf424U,
  0x2cdedfcb52229c2U, 0xb4bae6fbfcc80c98U, 0xee06d31cf3db20bfU, 0xf7f0dfc0c9df81e2U,
  0x2e5ef1ee2e62407U, 0xecddf7f1ce02eff7U, 0xf9f3b104ecdfeee4U, 0x2fe0dd2bf09030dU,
  0x11f7f9fdd1131fc5U, 0xf6d9ded1bffff0beU, 0xe7e6d9ea2700e1f4U, 0x1de5ddcce2ddfcb1U,
  0xedf0320413e82706U, 0xece8d50d12001fe6U, 0x5ef01fafef709efU, 0x28eefd0afc01200cU,
  0xfa0bef0cf1dc020fU, 0x1b0901ece7defff1U, 0xe80cfc1e3502fae6U, 0xfa1322e81aee1cf9U,
  0xbae7e913e916e003U, 0x2f7eff2fc2cffe9U, 0x201aee0b01e619e4U, 0x190c2c38ff0af7fcU,
  0x8122f170aedf316U, 0xc917060fee2019f4U, 0xe9f11a04d5fc03deU, 0x22d0d6e207ce0f06U,
  0xe4efe82421f2d30aU, 0xfde9020e1c0af6caU, 0x2b0f0cfbf1ce22d8U, 0xafd1c2015ff0de7U,
  0xf2f406f6dfd8fe1bU, 0x2dfaf6dfcfe2f8efU, 0xe1f8fb0cef10eefeU, 0x1afde1e7090a0504U,
  0x5ee2e0af414070eU, 0xf0ffb0100fb1211U, 0xf706f612f2e2ee06U, 0xe0714fd0c02f114U,
  0x12fdd309f702eafeU, 0x1419011300e9f006U, 0xe501faf5021bf9e0U, 0xf8322a0915e7f6ffU,
  0x3b70bfb3026fe21U, 0xd6cec5fe150cefafU, 0xbfa1c0ff421fee4U, 0x3eda0d24fb07fa1aU,
  0xd7e51361e208e7f6U, 0x12eef0f603d00fbeU, 0xefe1fd2e0ff803f3U, 0xdad60637c5eb28dfU,
  0xfebae954f007caeeU, 0x7dbdac9e12010f9U, 0xfdfdd82bd53515b3U, 0xbdd0106efe8d2dfU,
  0xfbe9e226bf06ffd0U, 0xd7edd0fbebde48bfU, 0xeae229cffa023ff5U, 0xd8ea2634d1ee15e3U,
  0xf0fafd11f6c60402U, 0x7c1e5db0631110bU, 0xeb06d82818faed36U, 0x2dfc3fdcf2f315e4U,
  0x2e9151105db0904U, 0x1007dbdde0020d01U, 0xf220dfb21dd2716U, 0x212032111fc1c01U,
  0xe9e6ffe610230205U, 0xc0d8ee2802f84ec0U, 0x48f9f01ccae223bbU, 0xfad3140d11120e0aU,
  0xf1d7fd17e70b211dU, 0x2219d81be7fef9f5U, 0xad9f1c00318fef0U, 0xdb1b1a4be7ad1a04U,
  0x3ad109cfc2e2d227U, 0xc7dfd505af181cf5U, 0x160ce7f304dd11d8U, 0xecd71608111d08e3U,
  0xdf08e82af8f225f1U, 0xf6f4fd3bfaea17e2U, 0x1ffbca9cc2eae706U, 0xe60418400481e6daU,
  0x26ff0cfdf8a445f4U, 0xcb0a14eef00cffd1U, 0x22f128e036ee22f1U, 0xdfd41c17fd0802beU,
  0xc5480eda0fd02b13U, 0xcf72000eed91b06U, 0x1801fbfd070dd429U, 0x20ebfa3944c202f2U,
  0x1af8190dcdff1b39U, 0xf2ea031cd8fd2fbaU, 0x2af8f1310dfe0cd6U, 0xd008f513250d0d15U,
  0xc914c503e608f107U, 0xe11ced11e1e9e2e9U, 0x1fa1bcfef1312f3U, 0x3150738e1c71513U,
  0x12cdf9e90af2e7fcU, 0xc2f5e7e3ef051dd3U, 0x17dd101ae1f0ebecU, 0xfdece2d952ea05baU,
  0xdbd1d6cdde0f0813U, 0xc2f9e60803fccbe9U, 0x100d27c5e80cdff3U, 0xcff50e16e8e6f410U,
  0x2da03b6f1e0e7faU, 0xf7fe26f423f7e7edU, 0x48012b1227d306f8U, 0xd4e70e07220c36e2U,
  0xe8fcd3d5f9d60bfbU, 0xf4eefe0d0d11c406U, 0x42eddff2f3b6de29U, 0x216f9050cd10214U,
  0x262004f5dbf6d41aU, 0xb9b6d1202a1b3f0bU, 0xd9fffb11df8c26ceU, 0x17010ff2e4f91521U,
  0xced02f24d0a751dU, 0x4af1003e2a06360eU, 0xbd2b00f9e0f445f4U, 0x1c331d0214111321U,
  0x9fb18a514f8dbe1U, 0xd2a8f9e75c04cef6U, 0xefdc09f619b4daf3U, 0x551ef026e3a32706U,
  0xd4b92d33292328faU, 0x3ae26424f8e51a1eU, 0x9c080838cd621204U, 0x518e821f71cfc35U,
  0xebfe09aadb1fd50dU, 0xe303191d1515df14U, 0x15010aea19160df6U, 0x1e19caecc2e52140U,
  0xb300bc5cf544e2d3U, 0x8fd0f2210e3f5d7U, 0xe3ab0c32f9e402edU, 0xff323132e8220a13U,
  0xe3caf223039bf81cU, 0xd5e9dff8fcde12f3U, 0xc006ba1fdc0e07f0U, 0xe7caf3e6c006d3e3U,
  0x5f22321fef8fd03U, 0x1dd6d705ed083b1eU, 0xcc1afbf4b40b2aedU, 0xa9e8edf006ce081dU,
  0xafcbf3971bf8f3d3U, 0xeaf8ddb53dfd00bcU, 0x18c41517f8cff817U, 0x51f6030ca39c2ecaU,
  0x39d2461a30eb14dbU, 0xdf329e3b3f90f29U, 0xb92bf519ab3bcb03U, 0xc6d5c3fb0a1cf22eU,
  0xa4ed0e3f190618e5U, 0xe525e4d7d01ebeecU, 0x309f3d7ede916f7U, 0x92820f7b405080bU,
  0xf5f153121cf9fd1fU, 0xc1f9b8fee9d71ae2U, 0xe4d8f113fdb9ebc2U, 0x10e30634cd39d0b0U,
  0xf6aad23e0feafc3eU, 0x152e35f2f607e807U, 0xf73fe4f9fb612517U, 0xa8d43afb253c9a0aU,
  0x810410e607019d1cU, 0xfc5bbecc113b0e0bU, 0x24eae609f0f9d1ebU, 0xde8be4fdfdddee04U,
  0x21ccf0015c2ef94dU, 0x2429ffdd06fa1809U, 0xfe08ef0f1629eb1dU, 0xf8fd090cd90ae325U,
  0x3cd4f3074b0add13U, 0x3d1d0ddff51ff60cU, 0xfa1dfc2b9f3ebbfbU, 0xd0d8da0e0be432f6U,
  0x25f5ea2b15f9e4eeU, 0x50ae0f4b0080a25U, 0x132d0402c9c6d907U, 0xa1e70bd0eef8c62bU,
  0xd1106c29121ce455U, 0xfdfa051bf41aebecU, 0xac8f136eb352cc2U, 0xaf11f52cdfb0ff5U,
  0xbf0f21503f1fa15U, 0x1afa1d222fd42232U, 0x11ed2207fd07f2efU, 0x802f6e824012016U,
  0xf209360e13c5ea0bU, 0x2d0df9000032153aU, 0x3af70bfefa07d904U, 0xe1e316254302180cU,
  0xcfe4e55007befc13U, 0x3f81f18ee2628f1U, 0x807eb09db3b02e8U, 0xc2ec17effc0bea03U,
  0x160010daf2ddee18U, 0x9fdfefdf8070903U, 0x1efcd2c3e1140519U, 0xe2fe13d70dd0230bU,
  0xf7f4d2f5d8e30eedU, 0x6d18ad6bb12dfd4U, 0xe71110c9fde42de1U, 0xe5fd2831bf1c1debU,
  0xf1054810f9e922d8U, 0xb8bfdb57e700d2b4U, 0x741c1f3c4b30214U, 0xebdeb4e3f7fceca8U,
  0x22fdffebeaeff607U, 0x39f9061a00d2f62cU, 0x240efafc0bf50c0aU, 0xeaf7e10ffaef060aU,
  0xeb0aec11f2f9e1e3U, 0x8042b0eff210702U, 0x2cfcf1e70618cbddU, 0x21925eb08ef02e1U,
  0x2e6ee260c1d0212U, 0xd91b2121fcf12a17U, 0x1910fad80efa29e7U, 0xf3d043f526f8f321U,
  0xfc2c0349f0d3e619U, 0xc614e3d708e8e117U, 0xfb05f5f74e17ff08U, 0xebfe33bff704120bU,
  0xecbced04f5222405U, 0xa1f9c8ed9e2c09e9U, 0xc2ad7f8001216fcU, 0xeec83f2d2b2e01c6U,
  0xde24508dce40b1bU, 0xd9d8ce15f202f0f8U, 0x2026e801ffe98120U, 0xd1c0e310f5acd60bU,
  0xfdf9e21d160cf7d6U, 0x31121cea31f3071aU, 0xf6f2f8f7ee0af419U, 0x241eeaeb03fe0613U,
  0x6ef0dfce72fe0f6U, 0xf10e0af626291832U, 0x10f35f50feeeff8U, 0xec0a1ff4fbf5f803U,
  0x19e8ff0a0423f7f7U, 0xa16fc25fd0a2d1dU, 0xc9d9f3f1250ed11bU, 0xf502efd105e9da27U,
  0xf3f7d71bdd26fac7U, 0x110ebdf2111207f2U, 0xecf8f923f80202f3U, 0xeb0721dcfe0eefd4U,
  0x5f6f2021443be10U, 0xfc0de2e417c6f1fcU, 0x20ad7fb1e17e30bU, 0x57da1bca2c32ca0eU,
  0xd318f703d80bf3e9U, 0x532d9ff231d2c2dU, 0x223032e09af0dU, 0x1e40de008e920e6U,
  0xe9f512f205d62fe6U, 0xf2f9f9382d440fd8U, 0xcddc26de0a1aa9f9U, 0xd8c217161cc4fae9U,
  0xe1dfbdf711efe352U, 0x3a093733e5be0bfaU, 0xd6df15a10e3c1ce6U, 0xe0020fdd13fc4700U,
  0x560c2284f9e3ee00U, 0x40bb3f0ad26d1e5U, 0x2f0bee12180307e3U, 0xcee9c91712cc3ab6U,
  0x2bfb2214de38c41fU, 0xb99245e0a1000b6U, 0xff60d14a219a7b4U, 0xe8e20de6f9f9d9a7U,
  0x6c90fec2cde051cU, 0xeb34d526e8012db8U, 0x2ae4f6f315e529d0U, 0xe8d7221fd0c628d6U,
  0x1c051303f70bad0aU, 0x4b20435e3d1dbc0U, 0xf505dffcc5d2c3cbU, 0xe0fa0bc5c507cfcbU,
  0xc905fe0e0008f40bU, 0x42be8e1d90ee303U, 0xd3fc1537bf0bb6d7U, 0x1509f5c832f01f0dU,
  0xf7cef61f12141f42U, 0xe3fdf80f30dccef7U, 0xef233a03f33bca15U, 0xd2131ecacd091414U,
  0xf5f6f93909eddad4U, 0xf236e1ecdaddb3faU, 0x1005de45e42aefefU, 0xfa09c6e90dfff5f2U,
  0x22930beee50af608U, 0xb7f5f93e333326ddU, 0x1bfe4521e51ad2cbU, 0xfa080adabcf508b7U,
  0xddf4e636ebe5d5feU, 0xe403fb0cfcf20bc9U, 0x2001c62f19091cd0U, 0x14dfffea154a1b07U,
  0xe5d50d0fd808f7c5U, 0xdfecf0212c150dc8U, 0x30f2b7ee2ed800b3U, 0xcf0e4e596d3e2e4U,
  0xee5f1ed191ae0ffU, 0xedf00f1a07d4030fU, 0x2dce5fbf0c0f085U, 0x160f29d1fce6eaf9U,
  0x6eb2aee08e12d03U, 0xd9bf02c82318bbd8U, 0xe6e40527e61d0411U, 0xecca0ceeeb08e228U,
  0xbaffe92802e6ddcdU, 0xd4f91f1532ebe1e6U, 0x2afde317c4c0eea3U, 0xad6edc3fc15ccf2U,
  0xf8d01a260581d1f4U, 0xdb0ed2e5f956fd1cU, 0xe3ed25020cdd0606U, 0xeec0cac0f21508e8U,
  0xd9e2a4faed1cdefdU, 0xf60121f944e0f4ecU, 0xeddc2e00b8e7eca9U, 0xaa00108de08bc0aU,
  0xfcb90b1e1ec0f2f2U, 0x100716b0f80cf031U, 0xf0fce9ea08e227f2U, 0xfddeeea8dae4e610U,
  0xddd35df0307e846U, 0xd337de2217331bbbU, 0x23d91f34bbed0ce4U, 0xbf91f2810da48f1U,
  0x31eeef2807e11e3fU, 0x35d1cf3411c2e826U, 0x2e2ce10c06e2f110U, 0xbd2400f1d11ad71bU,
  0xd5c61b90fe389d32U, 0xcd31ea3e06363daeU, 0x2ea01424f8cb0dd5U, 0xdffc8ef0fc32526U,
  0x63c0f9c20cdc4630U, 0x63f1f9140281f600U, 0xf72dceeadcf8e2fbU, 0xc12158e9df06110dU,
  0x6d510c9be15cd13U, 0xeb30f51dfa1e040dU, 0x23f2fdf81bb0f9abU, 0xe60b00042afc16eeU,
  0x23ff0bf1e802411fU, 0xbcf053010ffe2e9U, 0x1e2ed8fbe46ad800U, 0xc4203a13b9b7fffaU,
  0x7f20fdaf0e1ca35U, 0xf5e50a5f1818f3bbU, 0x2de500070d1017d8U, 0xb03d812ecdd37fcU,
  0xe0fcc1f0ccf706c5U, 0x1906062be9f714e4U, 0x1721d01a0ada04d1U, 0xde05fad9cb25e8d3U,
  0xeadfedf5e6e2ead3U, 0xf9ff012a4bcaf1aaU, 0xf1e6fccd2401d5d1U, 0xbdeb050520ab172fU,
  0xf1f2ebc5d101240cU, 0x36ca0ff1df9db30aU, 0xf9ced21f4122e0U, 0xbe332e03d51defe0U,
  0xe8e317dbfde20716U, 0x1321e1f2ebfec9e5U, 0x2b111ce3f410e8d4U, 0xacefc806f4b82cd8U,
  0xc316ddf4e0020b13U, 0xf3affe1adedacaceU, 0xb0fb635043de4dcU, 0xcc110eeccf09f8d1U,
  0x1dff1a00fd0feb07U, 0xe012091be524e9f3U, 0xc3ddec1cd92a11c0U, 0xda010b273fed120aU,
  0xdce91ceeeb3aeafeU, 0xe7c1004520fc29deU, 0x220f7ed0bf009c8U, 0xe7080bc8cd06d7d8U,
  0x11d5fc06fb3be5e9U, 0xfc24cf1f9af6ede4U, 0xffd0d22ef9ec21b6U, 0xe7ff2efdf3d32d08U,
  0xebcfecf0f8080ee9U, 0xd6f7c52a0ad0d8e9U, 0xff07f4f3c81afe02U, 0xb919fd02cc0ad6c8U,
  0xf4c3f410d5fced14U, 0x2713e808f819c3edU, 0x1913181f0818efc6U, 0x4dd1c03f5e80308U,
  0x5d31534f1e4d30aU, 0x2ab705e100e812U, 0x210f03f82c2bf506U, 0xb7e4fa02e217eed2U,
  0x51bb063bcf121f3fU, 0xbd03c557a9eaf903U, 0x92ddce12c1a58daU, 0xe39d44080631d1c0U,
  0x1fff0229efdc1001U, 0x13d1b8f4e70f25ceU, 0x2dd5f0dc0ff7db0eU, 0xc00e315f80ef7e0U,
  0x3bdae5e6d7572236U, 0xdcf2c53bd3cb5bf9U, 0xd90328f17f323304U, 0x7ec18fe1412d6caU,
  0x5d0e480f2cfe2d32U, 0x4dc4f3ef1a0c21fbU, 0x224bccb01540d645U, 0xfcdd2ded2ce22b24U,
  0xdae010c614ff1509U, 0xf612d4be1ece0a14U, 0xfe352bf7f0d1bae3U, 0xcff05df1b9eecd1U,
  0xc00710a2301f24bU, 0xdd041efe1d031302U, 0x1516f63cfe49c4fbU, 0xffd000820e82425U,
  0x2c0afafcdbe42601U, 0xf1de1646fa51eecdU, 0x9f11bcb351af3feU, 0xb3c122e5212610aeU,
  0xee2ed3ebc6eeeecfU, 0x5e5cd20d8dfd6e7U, 0xe6ee0bec3004feefU, 0xf1ffddc9f32dccf7U,
  0x7ed0bca22ff1eefU, 0xee0b3df61117c8bbU, 0xef973af6234dd21fU, 0xb314f2d9fa09efd5U,
  0x80e14b6012629cfU, 0xbce71cd80adda8ebU, 0xf30ef1d84005d613U, 0xe83bc8e2e810efdfU,
  0x7e80ae1fe1500e0U, 0xe62a39f925ffb5d7U, 0x29e5002ef701beeeU, 0xf5fb020ed5f7e1e4U,
  0x2fe8e2eef3fedbd4U, 0xb6e32f28f7cdcae5U, 0xf7ec07c91642f1d3U, 0xf01bdf3efb1cf1c3U,
  0x28d4c7d61befdc21U, 0x12e8e03bd532dcf9U, 0xfdc7112f1be7daf6U, 0x1abbf7f116160cc9U,
  0x8f8050106c1f2eaU, 0xedf61fd1ec0704ceU, 0xcf0427ade3e622f5U, 0xb7ddfb13bef9d405U,
  0xdae1b4b7331004dbU, 0x18f3f2d90139bbb7U, 0x1fd02a44f91edfecU, 0xf4f1d82dd0ea27cbU,
  0xfefa330f07d9f7f9U, 0xe061ad9e6ddbdd6U, 0xa431e3fa17c005d8U, 0xe4d7d112d4010dd8U,
  0xc7fbe7ec00ecdee7U, 0xced1218050ed7dbU, 0x10e95022e407e3d0U, 0x6fef9110efe1dfdU,
  0xf9f5d1130b12e50aU, 0xfd161ae6cdfeebf3U, 0xc63d08bd130128d7U, 0xda0e1a11cbcb1e02U,
  0xdfebcaecbde8e821U, 0x13b0ef35103f27f4U, 0x15d700e330d00ad3U, 0xe32118e5d50d17f2U,
  0xa9fb0225d83c02d6U, 0xc020ee41dfe2db5U, 0xfad6decaff6e00d4U, 0xacf22550ebdc37a1U,
  0xced0a115192fc7ddU, 0x2c3a0ef0ff0d3acU, 0x2b33ea31b4f348b5U, 0x9fe50b10d16f9U,
  0x43e03222be6d818cU, 0x4de7f50faaebf38aU, 0x8aa41f4409f9be94U, 0xc0e7ac2de12ce5a8U,
  0x3203829ffdab9af6U, 0xf13df16cd5c37711U, 0xd5f6da32be07e38aU, 0xfefcdefadd9dc342U,
  0x68e7bdd15df6ca05U, 0x4902d80c091bbe2fU, 0xdcadf9d7f4c33787U, 0x9b043dff054ff325U,
  0xeee0c22222ede11dU, 0xb5c6e10dd9d03dadU, 0xd9ccd5d01dd40baeU, 0xfdc651c10d0ddee8U,
  0xfdc22df3d1991ee2U, 0xbec4fcaa01ec1af0U, 0xe30af3281741f6e9U, 0xb9b6071efcfdd90bU,
  0xbbf2ddfed4f2c3a2U, 0xcba525612901270aU, 0xdb1105edf30102ebU, 0x440e302321fc0ff0U,
  0xe1f03250fefac5e2U, 0xdf272d6211f0117U, 0x13a9d127f5b603f8U, 0xd297a20f2009f6e8U,
  0x710a0002e1c2cbfdU, 0x1dc7033633005c1aU, 0xf723dac93b1f0ceeU, 0x9c1d8d2d2c8a0775U,
  0xed49c4cf891a01b1U, 0x470f263d1702d3f7U, 0x5b6e9e1e52765d7U, 0xb00545fbff200352U,
  0x4fcd3111ee070b37U, 0xd82511feff0621eeU, 0x6e91c150fe0d1ffU, 0xd429f6baf72f1312U,
  0x15f00a2f2b1dff35U, 0x21f7f51cedfd0510U, 0x2511fc35ec08c6b7U, 0xf1d0eef70604f440U,
  0xfdf29c710162de6U, 0xdb1805dc1afdd20aU, 0xe3fe44d60de30036U, 0x9ce13eff8f6e7d1U,
  0xee182cf64cf0fd1dU, 0xd1b9f8f21c05d3dfU, 0x2c1badc9d21ba1f9U, 0x91fc29b2e2d10b04U,
  0x23d246fcca14fd05U, 0xfd131b085117010bU, 0xc2d239cb02b92b03U, 0x1fc0071df0573031U,
  0x21f8fdd5151318f9U, 0x2414b70a0a0c0f0fU, 0x180226df23b1ece5U, 0xc11b22fcdf1ce934U,
  0xe504140f0bce08ebU, 0xff0af8ce1017da07U, 0xfcf30ae5fbe8e72bU, 0x1bec0fe9ca120b02U,
  0xee19e5020119ebceU, 0xf6fe1aebf3fe1603U, 0xf914fce31806ffc8U, 0xfcf8f3edfb17cfffU,
  0x1a0c090dddeef1fdU, 0xf400f1c1091ff4e7U, 0xd6cf211805e7f117U, 0xefef1aede0fd0f02U,
  0xe4da03000218f6f8U, 0xe7e0050809efafd3U, 0xdced13e3feeff1c7U, 0x13d8d6e2f314c21aU,
  0xdd5f0171700f70cU, 0xf514fd13142d25f7U, 0xee0eef3819e6fef7U, 0xef106e9fb0c1315U,
  0xeef9081f0312db06U, 0xf4f6f40211070feaU, 0xfafaf30610ea14cbU, 0xdfef1dd1ca10f503U,
  0xbbee810e25fee0e9U, 0x10dff2470a16170aU, 0xb6ebb3d6e0f5fc12U, 0xfd0314b9ddf4c8feU,
  0xe5d6f8cdfaf9e904U, 0x9eee44fcd616333aU, 0xea0a11d10c0c23faU, 0xd6dce8f2000b990fU,
  0xac08e3060cf6ffceU, 0xfec7181bf1fdedaaU, 0x6a5e30b1b2d13f0U, 0xf08fb08c7d2fb08U,
  0xd5fc0011eaf3f7f5U, 0xf0f71ffcbae6ede5U, 0x9df1f0dbe9ea22feU, 0xe8d4bf0a0bfffa12U,
  0xf9d0fb01e2e72131U, 0xe8e7d0f0f0260accU, 0xf31b09f016080de9U, 0xedf2fc21f9dff918U,
  0x2a380522fc05ed05U, 0x2f1d71102e0fafdU, 0xf9e61f0ff70de8f6U, 0xcbe0fef40d1f17efU,
  0x1ae83003041a1df8U, 0xfd1ee11f9bc361aU, 0xd523d8dc27e7e607U, 0xe7eb1bcbe53abc03U,
  0x527dffc25eb15e6U, 0x2df7c418f225e3eeU, 0x1f3cc4ff02ea0631U, 0xc8d0e1fa30fef22aU,
  0xe51efe0f200ae7U, 0xcbcfd6bc1f0626e3U, 0xedf52c0af6d0c1fdU, 0x1ce032fa18e0bcf0U,
  0xe9d152111ee10263U, 0x1e001f16c8ee14fdU, 0xdef6ef04b863cd1fU, 0xc8d2fbf528d23af3U,
  0xf3e102fc04180206U, 0x20bd2280320f7dfU, 0x322b113a15f8450aU, 0xfcfc24393010130dU,
  0x1f260926eb1cc205U, 0xe208e305fdf315ecU, 0x14b1f209e916ddf0U, 0xe2f6f902eefaf4d9U,
  0x1ffb444203f3ecU, 0xf3fd18ef18c5e3c7U, 0x13efe0c7e12a3111U, 0x26adfc20d30d05fdU,
  0x3913321f03e911e2U, 0xf6f63ff0b2e1d205U, 0xc02af7281fe5f7e6U, 0x110aecfc09fd06f4U,
  0x1fa8ee4b0db01be1U, 0xec1202e5ee12e9b6U, 0xd104e6b9e83dfcd0U, 0xfdde1c4c042018beU,
  0xff1bd6fb08e02007U, 0xebd40e16e8da23e7U, 0xdb01b5251dc7ea15U, 0x3ddd7f5e00ad1ecU,
  0x13eadc0ce9ce1116U, 0x13d55702f51105cdU, 0xef0500dc2c38ff1bU, 0xe81af00cea04fd17U,
  0x31c0ec6ee4b1903U, 0x11efdbeff0fee016U, 0x16ecf13a3932f80aU, 0xbccef0e1a02ec16U,
  0x41ae90105522df4U, 0xba4f0c2fca8127a3U, 0x24f1b996caf13bc7U, 0xfdc539fde220f3f7U,
  0x54faf8d005fbc4f6U, 0xe0def9fcdde1d7f6U, 0xece8e6e333d3eccdU, 0xbbd290de0ecc3fdU,
  0x1cfb7e225d2c1d8U, 0xea25f9df08f3c8d4U, 0xedef04d5d2d3b6ecU, 0xf9b1f9cd0eedfc89U,
  0xe9c8dc12a0d2bf14U, 0x9ccdfa0afbf12d27U, 0xe6b9bea80e1ce108U, 0xdee80a11eea30602U,
